{
  "vocab": {
    "0": 5072,
    "1": 5064,
    "2": 5066,
    "3": 5053,
    "4": 5058,
    "5": 5084,
    "6": 5054,
    "7": 5059,
    "8": 5077,
    "9": 5065,
    "<PAD>": 0,
    "<UNK>": 1,
    "<BOS>": 2,
    "<EOS>": 3,
    "<SEP>": 4,
    "<RESERVED_0>": 5,
    "<RESERVED_1>": 6,
    "<RESERVED_2>": 7,
    "<RESERVED_3>": 8,
    "<RESERVED_4>": 9,
    "<RESERVED_5>": 10,
    "<RESERVED_6>": 11,
    "<RESERVED_7>": 12,
    "<RESERVED_8>": 13,
    "<RESERVED_9>": 14,
    "<RESERVED_10>": 15,
    "<RESERVED_11>": 16,
    "<RESERVED_12>": 17,
    "<RESERVED_13>": 18,
    "<RESERVED_14>": 19,
    "<RESERVED_15>": 20,
    "<RESERVED_16>": 21,
    "<RESERVED_17>": 22,
    "<RESERVED_18>": 23,
    "<RESERVED_19>": 24,
    "<RESERVED_20>": 25,
    "<RESERVED_21>": 26,
    "<RESERVED_22>": 27,
    "<RESERVED_23>": 28,
    "<RESERVED_24>": 29,
    "<RESERVED_25>": 30,
    "<RESERVED_26>": 31,
    "<RESERVED_27>": 32,
    "<RESERVED_28>": 33,
    "<RESERVED_29>": 34,
    "<RESERVED_30>": 35,
    "<RESERVED_31>": 36,
    "<RESERVED_32>": 37,
    "<RESERVED_33>": 38,
    "<RESERVED_34>": 39,
    "<RESERVED_35>": 40,
    "<RESERVED_36>": 41,
    "<RESERVED_37>": 42,
    "<RESERVED_38>": 43,
    "<RESERVED_39>": 44,
    "<RESERVED_40>": 45,
    "<RESERVED_41>": 46,
    "<RESERVED_42>": 47,
    "<RESERVED_43>": 48,
    "<RESERVED_44>": 49,
    "<RESERVED_45>": 50,
    "<RESERVED_46>": 51,
    "<RESERVED_47>": 52,
    "<RESERVED_48>": 53,
    "<RESERVED_49>": 54,
    "<RESERVED_50>": 55,
    "<RESERVED_51>": 56,
    "<RESERVED_52>": 57,
    "<RESERVED_53>": 58,
    "<RESERVED_54>": 59,
    "<RESERVED_55>": 60,
    "<RESERVED_56>": 61,
    "<RESERVED_57>": 62,
    "<RESERVED_58>": 63,
    "<RESERVED_59>": 64,
    "<RESERVED_60>": 65,
    "<RESERVED_61>": 66,
    "<RESERVED_62>": 67,
    "<RESERVED_63>": 68,
    "<RESERVED_64>": 69,
    "<RESERVED_65>": 70,
    "<RESERVED_66>": 71,
    "<RESERVED_67>": 72,
    "<RESERVED_68>": 73,
    "<RESERVED_69>": 74,
    "<RESERVED_70>": 75,
    "<RESERVED_71>": 76,
    "<RESERVED_72>": 77,
    "<RESERVED_73>": 78,
    "<RESERVED_74>": 79,
    "<RESERVED_75>": 80,
    "<RESERVED_76>": 81,
    "<RESERVED_77>": 82,
    "<RESERVED_78>": 83,
    "<RESERVED_79>": 84,
    "<RESERVED_80>": 85,
    "<RESERVED_81>": 86,
    "<RESERVED_82>": 87,
    "<RESERVED_83>": 88,
    "<RESERVED_84>": 89,
    "<RESERVED_85>": 90,
    "<RESERVED_86>": 91,
    "<RESERVED_87>": 92,
    "<RESERVED_88>": 93,
    "<RESERVED_89>": 94,
    "<RESERVED_90>": 95,
    "<RESERVED_91>": 96,
    "<RESERVED_92>": 97,
    "<RESERVED_93>": 98,
    "<RESERVED_94>": 99,
    "<RESERVED_95>": 100,
    "<RESERVED_96>": 101,
    "<RESERVED_97>": 102,
    "<RESERVED_98>": 103,
    "<RESERVED_99>": 104,
    "<RESERVED_100>": 105,
    "<RESERVED_101>": 106,
    "<RESERVED_102>": 107,
    "<RESERVED_103>": 108,
    "<RESERVED_104>": 109,
    "<RESERVED_105>": 110,
    "<RESERVED_106>": 111,
    "<RESERVED_107>": 112,
    "<RESERVED_108>": 113,
    "<RESERVED_109>": 114,
    "<RESERVED_110>": 115,
    "<RESERVED_111>": 116,
    "<RESERVED_112>": 117,
    "<RESERVED_113>": 118,
    "<RESERVED_114>": 119,
    "<RESERVED_115>": 120,
    "<RESERVED_116>": 121,
    "<RESERVED_117>": 122,
    "<RESERVED_118>": 123,
    "<RESERVED_119>": 124,
    "<RESERVED_120>": 125,
    "<RESERVED_121>": 126,
    "<RESERVED_122>": 127,
    "<RESERVED_123>": 128,
    "<RESERVED_124>": 129,
    "<RESERVED_125>": 130,
    "<RESERVED_126>": 131,
    "<RESERVED_127>": 132,
    "<RESERVED_128>": 133,
    "<RESERVED_129>": 134,
    "<RESERVED_130>": 135,
    "<RESERVED_131>": 136,
    "<RESERVED_132>": 137,
    "<RESERVED_133>": 138,
    "<RESERVED_134>": 139,
    "<RESERVED_135>": 140,
    "<RESERVED_136>": 141,
    "<RESERVED_137>": 142,
    "<RESERVED_138>": 143,
    "<RESERVED_139>": 144,
    "<RESERVED_140>": 145,
    "<RESERVED_141>": 146,
    "<RESERVED_142>": 147,
    "<RESERVED_143>": 148,
    "<RESERVED_144>": 149,
    "<RESERVED_145>": 150,
    "<RESERVED_146>": 151,
    "<RESERVED_147>": 152,
    "<RESERVED_148>": 153,
    "<RESERVED_149>": 154,
    "<RESERVED_150>": 155,
    "<RESERVED_151>": 156,
    "<RESERVED_152>": 157,
    "<RESERVED_153>": 158,
    "<RESERVED_154>": 159,
    "<RESERVED_155>": 160,
    "<RESERVED_156>": 161,
    "<RESERVED_157>": 162,
    "<RESERVED_158>": 163,
    "<RESERVED_159>": 164,
    "<RESERVED_160>": 165,
    "<RESERVED_161>": 166,
    "<RESERVED_162>": 167,
    "<RESERVED_163>": 168,
    "<RESERVED_164>": 169,
    "<RESERVED_165>": 170,
    "<RESERVED_166>": 171,
    "<RESERVED_167>": 172,
    "<RESERVED_168>": 173,
    "<RESERVED_169>": 174,
    "<RESERVED_170>": 175,
    "<RESERVED_171>": 176,
    "<RESERVED_172>": 177,
    "<RESERVED_173>": 178,
    "<RESERVED_174>": 179,
    "<RESERVED_175>": 180,
    "<RESERVED_176>": 181,
    "<RESERVED_177>": 182,
    "<RESERVED_178>": 183,
    "<RESERVED_179>": 184,
    "<RESERVED_180>": 185,
    "<RESERVED_181>": 186,
    "<RESERVED_182>": 187,
    "<RESERVED_183>": 188,
    "<RESERVED_184>": 189,
    "<RESERVED_185>": 190,
    "<RESERVED_186>": 191,
    "<RESERVED_187>": 192,
    "<RESERVED_188>": 193,
    "<RESERVED_189>": 194,
    "<RESERVED_190>": 195,
    "<RESERVED_191>": 196,
    "<RESERVED_192>": 197,
    "<RESERVED_193>": 198,
    "<RESERVED_194>": 199,
    "<RESERVED_195>": 200,
    "<RESERVED_196>": 201,
    "<RESERVED_197>": 202,
    "<RESERVED_198>": 203,
    "<RESERVED_199>": 204,
    "<RESERVED_200>": 205,
    "<RESERVED_201>": 206,
    "<RESERVED_202>": 207,
    "<RESERVED_203>": 208,
    "<RESERVED_204>": 209,
    "<RESERVED_205>": 210,
    "<RESERVED_206>": 211,
    "<RESERVED_207>": 212,
    "<RESERVED_208>": 213,
    "<RESERVED_209>": 214,
    "<RESERVED_210>": 215,
    "<RESERVED_211>": 216,
    "<RESERVED_212>": 217,
    "<RESERVED_213>": 218,
    "<RESERVED_214>": 219,
    "<RESERVED_215>": 220,
    "<RESERVED_216>": 221,
    "<RESERVED_217>": 222,
    "<RESERVED_218>": 223,
    "<RESERVED_219>": 224,
    "<RESERVED_220>": 225,
    "<RESERVED_221>": 226,
    "<RESERVED_222>": 227,
    "<RESERVED_223>": 228,
    "<RESERVED_224>": 229,
    "<RESERVED_225>": 230,
    "<RESERVED_226>": 231,
    "<RESERVED_227>": 232,
    "<RESERVED_228>": 233,
    "<RESERVED_229>": 234,
    "<RESERVED_230>": 235,
    "<RESERVED_231>": 236,
    "<RESERVED_232>": 237,
    "<RESERVED_233>": 238,
    "<RESERVED_234>": 239,
    "<RESERVED_235>": 240,
    "<RESERVED_236>": 241,
    "<RESERVED_237>": 242,
    "<RESERVED_238>": 243,
    "<RESERVED_239>": 244,
    "<RESERVED_240>": 245,
    "<RESERVED_241>": 246,
    "<RESERVED_242>": 247,
    "<RESERVED_243>": 248,
    "<RESERVED_244>": 249,
    "<RESERVED_245>": 250,
    "<RESERVED_246>": 251,
    "<RESERVED_247>": 252,
    "<RESERVED_248>": 253,
    "<RESERVED_249>": 254,
    "<RESERVED_250>": 255,
    "<RESERVED_251>": 256,
    "<RESERVED_252>": 257,
    "<RESERVED_253>": 258,
    "<RESERVED_254>": 259,
    "<RESERVED_255>": 260,
    "<RESERVED_256>": 261,
    "<RESERVED_257>": 262,
    "<RESERVED_258>": 263,
    "<RESERVED_259>": 264,
    "<RESERVED_260>": 265,
    "<RESERVED_261>": 266,
    "<RESERVED_262>": 267,
    "<RESERVED_263>": 268,
    "<RESERVED_264>": 269,
    "<RESERVED_265>": 270,
    "<RESERVED_266>": 271,
    "<RESERVED_267>": 272,
    "<RESERVED_268>": 273,
    "<RESERVED_269>": 274,
    "<RESERVED_270>": 275,
    "<RESERVED_271>": 276,
    "<RESERVED_272>": 277,
    "<RESERVED_273>": 278,
    "<RESERVED_274>": 279,
    "<RESERVED_275>": 280,
    "<RESERVED_276>": 281,
    "<RESERVED_277>": 282,
    "<RESERVED_278>": 283,
    "<RESERVED_279>": 284,
    "<RESERVED_280>": 285,
    "<RESERVED_281>": 286,
    "<RESERVED_282>": 287,
    "<RESERVED_283>": 288,
    "<RESERVED_284>": 289,
    "<RESERVED_285>": 290,
    "<RESERVED_286>": 291,
    "<RESERVED_287>": 292,
    "<RESERVED_288>": 293,
    "<RESERVED_289>": 294,
    "<RESERVED_290>": 295,
    "<RESERVED_291>": 296,
    "<RESERVED_292>": 297,
    "<RESERVED_293>": 298,
    "<RESERVED_294>": 299,
    "<RESERVED_295>": 300,
    "<RESERVED_296>": 301,
    "<RESERVED_297>": 302,
    "<RESERVED_298>": 303,
    "<RESERVED_299>": 304,
    "<RESERVED_300>": 305,
    "<RESERVED_301>": 306,
    "<RESERVED_302>": 307,
    "<RESERVED_303>": 308,
    "<RESERVED_304>": 309,
    "<RESERVED_305>": 310,
    "<RESERVED_306>": 311,
    "<RESERVED_307>": 312,
    "<RESERVED_308>": 313,
    "<RESERVED_309>": 314,
    "<RESERVED_310>": 315,
    "<RESERVED_311>": 316,
    "<RESERVED_312>": 317,
    "<RESERVED_313>": 318,
    "<RESERVED_314>": 319,
    "<RESERVED_315>": 320,
    "<RESERVED_316>": 321,
    "<RESERVED_317>": 322,
    "<RESERVED_318>": 323,
    "<RESERVED_319>": 324,
    "<RESERVED_320>": 325,
    "<RESERVED_321>": 326,
    "<RESERVED_322>": 327,
    "<RESERVED_323>": 328,
    "<RESERVED_324>": 329,
    "<RESERVED_325>": 330,
    "<RESERVED_326>": 331,
    "<RESERVED_327>": 332,
    "<RESERVED_328>": 333,
    "<RESERVED_329>": 334,
    "<RESERVED_330>": 335,
    "<RESERVED_331>": 336,
    "<RESERVED_332>": 337,
    "<RESERVED_333>": 338,
    "<RESERVED_334>": 339,
    "<RESERVED_335>": 340,
    "<RESERVED_336>": 341,
    "<RESERVED_337>": 342,
    "<RESERVED_338>": 343,
    "<RESERVED_339>": 344,
    "<RESERVED_340>": 345,
    "<RESERVED_341>": 346,
    "<RESERVED_342>": 347,
    "<RESERVED_343>": 348,
    "<RESERVED_344>": 349,
    "<RESERVED_345>": 350,
    "<RESERVED_346>": 351,
    "<RESERVED_347>": 352,
    "<RESERVED_348>": 353,
    "<RESERVED_349>": 354,
    "<RESERVED_350>": 355,
    "<RESERVED_351>": 356,
    "<RESERVED_352>": 357,
    "<RESERVED_353>": 358,
    "<RESERVED_354>": 359,
    "<RESERVED_355>": 360,
    "<RESERVED_356>": 361,
    "<RESERVED_357>": 362,
    "<RESERVED_358>": 363,
    "<RESERVED_359>": 364,
    "<RESERVED_360>": 365,
    "<RESERVED_361>": 366,
    "<RESERVED_362>": 367,
    "<RESERVED_363>": 368,
    "<RESERVED_364>": 369,
    "<RESERVED_365>": 370,
    "<RESERVED_366>": 371,
    "<RESERVED_367>": 372,
    "<RESERVED_368>": 373,
    "<RESERVED_369>": 374,
    "<RESERVED_370>": 375,
    "<RESERVED_371>": 376,
    "<RESERVED_372>": 377,
    "<RESERVED_373>": 378,
    "<RESERVED_374>": 379,
    "<RESERVED_375>": 380,
    "<RESERVED_376>": 381,
    "<RESERVED_377>": 382,
    "<RESERVED_378>": 383,
    "<RESERVED_379>": 384,
    "<RESERVED_380>": 385,
    "<RESERVED_381>": 386,
    "<RESERVED_382>": 387,
    "<RESERVED_383>": 388,
    "<RESERVED_384>": 389,
    "<RESERVED_385>": 390,
    "<RESERVED_386>": 391,
    "<RESERVED_387>": 392,
    "<RESERVED_388>": 393,
    "<RESERVED_389>": 394,
    "<RESERVED_390>": 395,
    "<RESERVED_391>": 396,
    "<RESERVED_392>": 397,
    "<RESERVED_393>": 398,
    "<RESERVED_394>": 399,
    "<RESERVED_395>": 400,
    "<RESERVED_396>": 401,
    "<RESERVED_397>": 402,
    "<RESERVED_398>": 403,
    "<RESERVED_399>": 404,
    "<RESERVED_400>": 405,
    "<RESERVED_401>": 406,
    "<RESERVED_402>": 407,
    "<RESERVED_403>": 408,
    "<RESERVED_404>": 409,
    "<RESERVED_405>": 410,
    "<RESERVED_406>": 411,
    "<RESERVED_407>": 412,
    "<RESERVED_408>": 413,
    "<RESERVED_409>": 414,
    "<RESERVED_410>": 415,
    "<RESERVED_411>": 416,
    "<RESERVED_412>": 417,
    "<RESERVED_413>": 418,
    "<RESERVED_414>": 419,
    "<RESERVED_415>": 420,
    "<RESERVED_416>": 421,
    "<RESERVED_417>": 422,
    "<RESERVED_418>": 423,
    "<RESERVED_419>": 424,
    "<RESERVED_420>": 425,
    "<RESERVED_421>": 426,
    "<RESERVED_422>": 427,
    "<RESERVED_423>": 428,
    "<RESERVED_424>": 429,
    "<RESERVED_425>": 430,
    "<RESERVED_426>": 431,
    "<RESERVED_427>": 432,
    "<RESERVED_428>": 433,
    "<RESERVED_429>": 434,
    "<RESERVED_430>": 435,
    "<RESERVED_431>": 436,
    "<RESERVED_432>": 437,
    "<RESERVED_433>": 438,
    "<RESERVED_434>": 439,
    "<RESERVED_435>": 440,
    "<RESERVED_436>": 441,
    "<RESERVED_437>": 442,
    "<RESERVED_438>": 443,
    "<RESERVED_439>": 444,
    "<RESERVED_440>": 445,
    "<RESERVED_441>": 446,
    "<RESERVED_442>": 447,
    "<RESERVED_443>": 448,
    "<RESERVED_444>": 449,
    "<RESERVED_445>": 450,
    "<RESERVED_446>": 451,
    "<RESERVED_447>": 452,
    "<RESERVED_448>": 453,
    "<RESERVED_449>": 454,
    "<RESERVED_450>": 455,
    "<RESERVED_451>": 456,
    "<RESERVED_452>": 457,
    "<RESERVED_453>": 458,
    "<RESERVED_454>": 459,
    "<RESERVED_455>": 460,
    "<RESERVED_456>": 461,
    "<RESERVED_457>": 462,
    "<RESERVED_458>": 463,
    "<RESERVED_459>": 464,
    "<RESERVED_460>": 465,
    "<RESERVED_461>": 466,
    "<RESERVED_462>": 467,
    "<RESERVED_463>": 468,
    "<RESERVED_464>": 469,
    "<RESERVED_465>": 470,
    "<RESERVED_466>": 471,
    "<RESERVED_467>": 472,
    "<RESERVED_468>": 473,
    "<RESERVED_469>": 474,
    "<RESERVED_470>": 475,
    "<RESERVED_471>": 476,
    "<RESERVED_472>": 477,
    "<RESERVED_473>": 478,
    "<RESERVED_474>": 479,
    "<RESERVED_475>": 480,
    "<RESERVED_476>": 481,
    "<RESERVED_477>": 482,
    "<RESERVED_478>": 483,
    "<RESERVED_479>": 484,
    "<RESERVED_480>": 485,
    "<RESERVED_481>": 486,
    "<RESERVED_482>": 487,
    "<RESERVED_483>": 488,
    "<RESERVED_484>": 489,
    "<RESERVED_485>": 490,
    "<RESERVED_486>": 491,
    "<RESERVED_487>": 492,
    "<RESERVED_488>": 493,
    "<RESERVED_489>": 494,
    "<RESERVED_490>": 495,
    "<RESERVED_491>": 496,
    "<RESERVED_492>": 497,
    "<RESERVED_493>": 498,
    "<RESERVED_494>": 499,
    "<RESERVED_495>": 500,
    "<RESERVED_496>": 501,
    "<RESERVED_497>": 502,
    "<RESERVED_498>": 503,
    "<RESERVED_499>": 504,
    "<RESERVED_500>": 505,
    "<RESERVED_501>": 506,
    "<RESERVED_502>": 507,
    "<RESERVED_503>": 508,
    "<RESERVED_504>": 509,
    "<RESERVED_505>": 510,
    "<RESERVED_506>": 511,
    "<RESERVED_507>": 512,
    "<RESERVED_508>": 513,
    "<RESERVED_509>": 514,
    "<RESERVED_510>": 515,
    "<RESERVED_511>": 516,
    "<RESERVED_512>": 517,
    "<RESERVED_513>": 518,
    "<RESERVED_514>": 519,
    "<RESERVED_515>": 520,
    "<RESERVED_516>": 521,
    "<RESERVED_517>": 522,
    "<RESERVED_518>": 523,
    "<RESERVED_519>": 524,
    "<RESERVED_520>": 525,
    "<RESERVED_521>": 526,
    "<RESERVED_522>": 527,
    "<RESERVED_523>": 528,
    "<RESERVED_524>": 529,
    "<RESERVED_525>": 530,
    "<RESERVED_526>": 531,
    "<RESERVED_527>": 532,
    "<RESERVED_528>": 533,
    "<RESERVED_529>": 534,
    "<RESERVED_530>": 535,
    "<RESERVED_531>": 536,
    "<RESERVED_532>": 537,
    "<RESERVED_533>": 538,
    "<RESERVED_534>": 539,
    "<RESERVED_535>": 540,
    "<RESERVED_536>": 541,
    "<RESERVED_537>": 542,
    "<RESERVED_538>": 543,
    "<RESERVED_539>": 544,
    "<RESERVED_540>": 545,
    "<RESERVED_541>": 546,
    "<RESERVED_542>": 547,
    "<RESERVED_543>": 548,
    "<RESERVED_544>": 549,
    "<RESERVED_545>": 550,
    "<RESERVED_546>": 551,
    "<RESERVED_547>": 552,
    "<RESERVED_548>": 553,
    "<RESERVED_549>": 554,
    "<RESERVED_550>": 555,
    "<RESERVED_551>": 556,
    "<RESERVED_552>": 557,
    "<RESERVED_553>": 558,
    "<RESERVED_554>": 559,
    "<RESERVED_555>": 560,
    "<RESERVED_556>": 561,
    "<RESERVED_557>": 562,
    "<RESERVED_558>": 563,
    "<RESERVED_559>": 564,
    "<RESERVED_560>": 565,
    "<RESERVED_561>": 566,
    "<RESERVED_562>": 567,
    "<RESERVED_563>": 568,
    "<RESERVED_564>": 569,
    "<RESERVED_565>": 570,
    "<RESERVED_566>": 571,
    "<RESERVED_567>": 572,
    "<RESERVED_568>": 573,
    "<RESERVED_569>": 574,
    "<RESERVED_570>": 575,
    "<RESERVED_571>": 576,
    "<RESERVED_572>": 577,
    "<RESERVED_573>": 578,
    "<RESERVED_574>": 579,
    "<RESERVED_575>": 580,
    "<RESERVED_576>": 581,
    "<RESERVED_577>": 582,
    "<RESERVED_578>": 583,
    "<RESERVED_579>": 584,
    "<RESERVED_580>": 585,
    "<RESERVED_581>": 586,
    "<RESERVED_582>": 587,
    "<RESERVED_583>": 588,
    "<RESERVED_584>": 589,
    "<RESERVED_585>": 590,
    "<RESERVED_586>": 591,
    "<RESERVED_587>": 592,
    "<RESERVED_588>": 593,
    "<RESERVED_589>": 594,
    "<RESERVED_590>": 595,
    "<RESERVED_591>": 596,
    "<RESERVED_592>": 597,
    "<RESERVED_593>": 598,
    "<RESERVED_594>": 599,
    "<RESERVED_595>": 600,
    "<RESERVED_596>": 601,
    "<RESERVED_597>": 602,
    "<RESERVED_598>": 603,
    "<RESERVED_599>": 604,
    "<RESERVED_600>": 605,
    "<RESERVED_601>": 606,
    "<RESERVED_602>": 607,
    "<RESERVED_603>": 608,
    "<RESERVED_604>": 609,
    "<RESERVED_605>": 610,
    "<RESERVED_606>": 611,
    "<RESERVED_607>": 612,
    "<RESERVED_608>": 613,
    "<RESERVED_609>": 614,
    "<RESERVED_610>": 615,
    "<RESERVED_611>": 616,
    "<RESERVED_612>": 617,
    "<RESERVED_613>": 618,
    "<RESERVED_614>": 619,
    "<RESERVED_615>": 620,
    "<RESERVED_616>": 621,
    "<RESERVED_617>": 622,
    "<RESERVED_618>": 623,
    "<RESERVED_619>": 624,
    "<RESERVED_620>": 625,
    "<RESERVED_621>": 626,
    "<RESERVED_622>": 627,
    "<RESERVED_623>": 628,
    "<RESERVED_624>": 629,
    "<RESERVED_625>": 630,
    "<RESERVED_626>": 631,
    "<RESERVED_627>": 632,
    "<RESERVED_628>": 633,
    "<RESERVED_629>": 634,
    "<RESERVED_630>": 635,
    "<RESERVED_631>": 636,
    "<RESERVED_632>": 637,
    "<RESERVED_633>": 638,
    "<RESERVED_634>": 639,
    "<RESERVED_635>": 640,
    "<RESERVED_636>": 641,
    "<RESERVED_637>": 642,
    "<RESERVED_638>": 643,
    "<RESERVED_639>": 644,
    "<RESERVED_640>": 645,
    "<RESERVED_641>": 646,
    "<RESERVED_642>": 647,
    "<RESERVED_643>": 648,
    "<RESERVED_644>": 649,
    "<RESERVED_645>": 650,
    "<RESERVED_646>": 651,
    "<RESERVED_647>": 652,
    "<RESERVED_648>": 653,
    "<RESERVED_649>": 654,
    "<RESERVED_650>": 655,
    "<RESERVED_651>": 656,
    "<RESERVED_652>": 657,
    "<RESERVED_653>": 658,
    "<RESERVED_654>": 659,
    "<RESERVED_655>": 660,
    "<RESERVED_656>": 661,
    "<RESERVED_657>": 662,
    "<RESERVED_658>": 663,
    "<RESERVED_659>": 664,
    "<RESERVED_660>": 665,
    "<RESERVED_661>": 666,
    "<RESERVED_662>": 667,
    "<RESERVED_663>": 668,
    "<RESERVED_664>": 669,
    "<RESERVED_665>": 670,
    "<RESERVED_666>": 671,
    "<RESERVED_667>": 672,
    "<RESERVED_668>": 673,
    "<RESERVED_669>": 674,
    "<RESERVED_670>": 675,
    "<RESERVED_671>": 676,
    "<RESERVED_672>": 677,
    "<RESERVED_673>": 678,
    "<RESERVED_674>": 679,
    "<RESERVED_675>": 680,
    "<RESERVED_676>": 681,
    "<RESERVED_677>": 682,
    "<RESERVED_678>": 683,
    "<RESERVED_679>": 684,
    "<RESERVED_680>": 685,
    "<RESERVED_681>": 686,
    "<RESERVED_682>": 687,
    "<RESERVED_683>": 688,
    "<RESERVED_684>": 689,
    "<RESERVED_685>": 690,
    "<RESERVED_686>": 691,
    "<RESERVED_687>": 692,
    "<RESERVED_688>": 693,
    "<RESERVED_689>": 694,
    "<RESERVED_690>": 695,
    "<RESERVED_691>": 696,
    "<RESERVED_692>": 697,
    "<RESERVED_693>": 698,
    "<RESERVED_694>": 699,
    "<RESERVED_695>": 700,
    "<RESERVED_696>": 701,
    "<RESERVED_697>": 702,
    "<RESERVED_698>": 703,
    "<RESERVED_699>": 704,
    "<RESERVED_700>": 705,
    "<RESERVED_701>": 706,
    "<RESERVED_702>": 707,
    "<RESERVED_703>": 708,
    "<RESERVED_704>": 709,
    "<RESERVED_705>": 710,
    "<RESERVED_706>": 711,
    "<RESERVED_707>": 712,
    "<RESERVED_708>": 713,
    "<RESERVED_709>": 714,
    "<RESERVED_710>": 715,
    "<RESERVED_711>": 716,
    "<RESERVED_712>": 717,
    "<RESERVED_713>": 718,
    "<RESERVED_714>": 719,
    "<RESERVED_715>": 720,
    "<RESERVED_716>": 721,
    "<RESERVED_717>": 722,
    "<RESERVED_718>": 723,
    "<RESERVED_719>": 724,
    "<RESERVED_720>": 725,
    "<RESERVED_721>": 726,
    "<RESERVED_722>": 727,
    "<RESERVED_723>": 728,
    "<RESERVED_724>": 729,
    "<RESERVED_725>": 730,
    "<RESERVED_726>": 731,
    "<RESERVED_727>": 732,
    "<RESERVED_728>": 733,
    "<RESERVED_729>": 734,
    "<RESERVED_730>": 735,
    "<RESERVED_731>": 736,
    "<RESERVED_732>": 737,
    "<RESERVED_733>": 738,
    "<RESERVED_734>": 739,
    "<RESERVED_735>": 740,
    "<RESERVED_736>": 741,
    "<RESERVED_737>": 742,
    "<RESERVED_738>": 743,
    "<RESERVED_739>": 744,
    "<RESERVED_740>": 745,
    "<RESERVED_741>": 746,
    "<RESERVED_742>": 747,
    "<RESERVED_743>": 748,
    "<RESERVED_744>": 749,
    "<RESERVED_745>": 750,
    "<RESERVED_746>": 751,
    "<RESERVED_747>": 752,
    "<RESERVED_748>": 753,
    "<RESERVED_749>": 754,
    "<RESERVED_750>": 755,
    "<RESERVED_751>": 756,
    "<RESERVED_752>": 757,
    "<RESERVED_753>": 758,
    "<RESERVED_754>": 759,
    "<RESERVED_755>": 760,
    "<RESERVED_756>": 761,
    "<RESERVED_757>": 762,
    "<RESERVED_758>": 763,
    "<RESERVED_759>": 764,
    "<RESERVED_760>": 765,
    "<RESERVED_761>": 766,
    "<RESERVED_762>": 767,
    "<RESERVED_763>": 768,
    "<RESERVED_764>": 769,
    "<RESERVED_765>": 770,
    "<RESERVED_766>": 771,
    "<RESERVED_767>": 772,
    "<RESERVED_768>": 773,
    "<RESERVED_769>": 774,
    "<RESERVED_770>": 775,
    "<RESERVED_771>": 776,
    "<RESERVED_772>": 777,
    "<RESERVED_773>": 778,
    "<RESERVED_774>": 779,
    "<RESERVED_775>": 780,
    "<RESERVED_776>": 781,
    "<RESERVED_777>": 782,
    "<RESERVED_778>": 783,
    "<RESERVED_779>": 784,
    "<RESERVED_780>": 785,
    "<RESERVED_781>": 786,
    "<RESERVED_782>": 787,
    "<RESERVED_783>": 788,
    "<RESERVED_784>": 789,
    "<RESERVED_785>": 790,
    "<RESERVED_786>": 791,
    "<RESERVED_787>": 792,
    "<RESERVED_788>": 793,
    "<RESERVED_789>": 794,
    "<RESERVED_790>": 795,
    "<RESERVED_791>": 796,
    "<RESERVED_792>": 797,
    "<RESERVED_793>": 798,
    "<RESERVED_794>": 799,
    "<RESERVED_795>": 800,
    "<RESERVED_796>": 801,
    "<RESERVED_797>": 802,
    "<RESERVED_798>": 803,
    "<RESERVED_799>": 804,
    "<RESERVED_800>": 805,
    "<RESERVED_801>": 806,
    "<RESERVED_802>": 807,
    "<RESERVED_803>": 808,
    "<RESERVED_804>": 809,
    "<RESERVED_805>": 810,
    "<RESERVED_806>": 811,
    "<RESERVED_807>": 812,
    "<RESERVED_808>": 813,
    "<RESERVED_809>": 814,
    "<RESERVED_810>": 815,
    "<RESERVED_811>": 816,
    "<RESERVED_812>": 817,
    "<RESERVED_813>": 818,
    "<RESERVED_814>": 819,
    "<RESERVED_815>": 820,
    "<RESERVED_816>": 821,
    "<RESERVED_817>": 822,
    "<RESERVED_818>": 823,
    "<RESERVED_819>": 824,
    "<RESERVED_820>": 825,
    "<RESERVED_821>": 826,
    "<RESERVED_822>": 827,
    "<RESERVED_823>": 828,
    "<RESERVED_824>": 829,
    "<RESERVED_825>": 830,
    "<RESERVED_826>": 831,
    "<RESERVED_827>": 832,
    "<RESERVED_828>": 833,
    "<RESERVED_829>": 834,
    "<RESERVED_830>": 835,
    "<RESERVED_831>": 836,
    "<RESERVED_832>": 837,
    "<RESERVED_833>": 838,
    "<RESERVED_834>": 839,
    "<RESERVED_835>": 840,
    "<RESERVED_836>": 841,
    "<RESERVED_837>": 842,
    "<RESERVED_838>": 843,
    "<RESERVED_839>": 844,
    "<RESERVED_840>": 845,
    "<RESERVED_841>": 846,
    "<RESERVED_842>": 847,
    "<RESERVED_843>": 848,
    "<RESERVED_844>": 849,
    "<RESERVED_845>": 850,
    "<RESERVED_846>": 851,
    "<RESERVED_847>": 852,
    "<RESERVED_848>": 853,
    "<RESERVED_849>": 854,
    "<RESERVED_850>": 855,
    "<RESERVED_851>": 856,
    "<RESERVED_852>": 857,
    "<RESERVED_853>": 858,
    "<RESERVED_854>": 859,
    "<RESERVED_855>": 860,
    "<RESERVED_856>": 861,
    "<RESERVED_857>": 862,
    "<RESERVED_858>": 863,
    "<RESERVED_859>": 864,
    "<RESERVED_860>": 865,
    "<RESERVED_861>": 866,
    "<RESERVED_862>": 867,
    "<RESERVED_863>": 868,
    "<RESERVED_864>": 869,
    "<RESERVED_865>": 870,
    "<RESERVED_866>": 871,
    "<RESERVED_867>": 872,
    "<RESERVED_868>": 873,
    "<RESERVED_869>": 874,
    "<RESERVED_870>": 875,
    "<RESERVED_871>": 876,
    "<RESERVED_872>": 877,
    "<RESERVED_873>": 878,
    "<RESERVED_874>": 879,
    "<RESERVED_875>": 880,
    "<RESERVED_876>": 881,
    "<RESERVED_877>": 882,
    "<RESERVED_878>": 883,
    "<RESERVED_879>": 884,
    "<RESERVED_880>": 885,
    "<RESERVED_881>": 886,
    "<RESERVED_882>": 887,
    "<RESERVED_883>": 888,
    "<RESERVED_884>": 889,
    "<RESERVED_885>": 890,
    "<RESERVED_886>": 891,
    "<RESERVED_887>": 892,
    "<RESERVED_888>": 893,
    "<RESERVED_889>": 894,
    "<RESERVED_890>": 895,
    "<RESERVED_891>": 896,
    "<RESERVED_892>": 897,
    "<RESERVED_893>": 898,
    "<RESERVED_894>": 899,
    "<RESERVED_895>": 900,
    "<RESERVED_896>": 901,
    "<RESERVED_897>": 902,
    "<RESERVED_898>": 903,
    "<RESERVED_899>": 904,
    "<RESERVED_900>": 905,
    "<RESERVED_901>": 906,
    "<RESERVED_902>": 907,
    "<RESERVED_903>": 908,
    "<RESERVED_904>": 909,
    "<RESERVED_905>": 910,
    "<RESERVED_906>": 911,
    "<RESERVED_907>": 912,
    "<RESERVED_908>": 913,
    "<RESERVED_909>": 914,
    "<RESERVED_910>": 915,
    "<RESERVED_911>": 916,
    "<RESERVED_912>": 917,
    "<RESERVED_913>": 918,
    "<RESERVED_914>": 919,
    "<RESERVED_915>": 920,
    "<RESERVED_916>": 921,
    "<RESERVED_917>": 922,
    "<RESERVED_918>": 923,
    "<RESERVED_919>": 924,
    "<RESERVED_920>": 925,
    "<RESERVED_921>": 926,
    "<RESERVED_922>": 927,
    "<RESERVED_923>": 928,
    "<RESERVED_924>": 929,
    "<RESERVED_925>": 930,
    "<RESERVED_926>": 931,
    "<RESERVED_927>": 932,
    "<RESERVED_928>": 933,
    "<RESERVED_929>": 934,
    "<RESERVED_930>": 935,
    "<RESERVED_931>": 936,
    "<RESERVED_932>": 937,
    "<RESERVED_933>": 938,
    "<RESERVED_934>": 939,
    "<RESERVED_935>": 940,
    "<RESERVED_936>": 941,
    "<RESERVED_937>": 942,
    "<RESERVED_938>": 943,
    "<RESERVED_939>": 944,
    "<RESERVED_940>": 945,
    "<RESERVED_941>": 946,
    "<RESERVED_942>": 947,
    "<RESERVED_943>": 948,
    "<RESERVED_944>": 949,
    "<RESERVED_945>": 950,
    "<RESERVED_946>": 951,
    "<RESERVED_947>": 952,
    "<RESERVED_948>": 953,
    "<RESERVED_949>": 954,
    "<RESERVED_950>": 955,
    "<RESERVED_951>": 956,
    "<RESERVED_952>": 957,
    "<RESERVED_953>": 958,
    "<RESERVED_954>": 959,
    "<RESERVED_955>": 960,
    "<RESERVED_956>": 961,
    "<RESERVED_957>": 962,
    "<RESERVED_958>": 963,
    "<RESERVED_959>": 964,
    "<RESERVED_960>": 965,
    "<RESERVED_961>": 966,
    "<RESERVED_962>": 967,
    "<RESERVED_963>": 968,
    "<RESERVED_964>": 969,
    "<RESERVED_965>": 970,
    "<RESERVED_966>": 971,
    "<RESERVED_967>": 972,
    "<RESERVED_968>": 973,
    "<RESERVED_969>": 974,
    "<RESERVED_970>": 975,
    "<RESERVED_971>": 976,
    "<RESERVED_972>": 977,
    "<RESERVED_973>": 978,
    "<RESERVED_974>": 979,
    "<RESERVED_975>": 980,
    "<RESERVED_976>": 981,
    "<RESERVED_977>": 982,
    "<RESERVED_978>": 983,
    "<RESERVED_979>": 984,
    "<RESERVED_980>": 985,
    "<RESERVED_981>": 986,
    "<RESERVED_982>": 987,
    "<RESERVED_983>": 988,
    "<RESERVED_984>": 989,
    "<RESERVED_985>": 990,
    "<RESERVED_986>": 991,
    "<RESERVED_987>": 992,
    "<RESERVED_988>": 993,
    "<RESERVED_989>": 994,
    "<RESERVED_990>": 995,
    "<RESERVED_991>": 996,
    "<RESERVED_992>": 997,
    "<RESERVED_993>": 998,
    "<RESERVED_994>": 999,
    "<RESERVED_995>": 1000,
    "<RESERVED_996>": 1001,
    "<RESERVED_997>": 1002,
    "<RESERVED_998>": 1003,
    "<RESERVED_999>": 1004,
    "<RESERVED_1000>": 1005,
    "<RESERVED_1001>": 1006,
    "<RESERVED_1002>": 1007,
    "<RESERVED_1003>": 1008,
    "<RESERVED_1004>": 1009,
    "<RESERVED_1005>": 1010,
    "<RESERVED_1006>": 1011,
    "<RESERVED_1007>": 1012,
    "<RESERVED_1008>": 1013,
    "<RESERVED_1009>": 1014,
    "<RESERVED_1010>": 1015,
    "<RESERVED_1011>": 1016,
    "<RESERVED_1012>": 1017,
    "<RESERVED_1013>": 1018,
    "<RESERVED_1014>": 1019,
    "<RESERVED_1015>": 1020,
    "<RESERVED_1016>": 1021,
    "<RESERVED_1017>": 1022,
    "<RESERVED_1018>": 1023,
    "<RESERVED_1019>": 1024,
    "<RESERVED_1020>": 1025,
    "<RESERVED_1021>": 1026,
    "<RESERVED_1022>": 1027,
    "<RESERVED_1023>": 1028,
    "<RESERVED_1024>": 1029,
    "<RESERVED_1025>": 1030,
    "<RESERVED_1026>": 1031,
    "<RESERVED_1027>": 1032,
    "<RESERVED_1028>": 1033,
    "<RESERVED_1029>": 1034,
    "<RESERVED_1030>": 1035,
    "<RESERVED_1031>": 1036,
    "<RESERVED_1032>": 1037,
    "<RESERVED_1033>": 1038,
    "<RESERVED_1034>": 1039,
    "<RESERVED_1035>": 1040,
    "<RESERVED_1036>": 1041,
    "<RESERVED_1037>": 1042,
    "<RESERVED_1038>": 1043,
    "<RESERVED_1039>": 1044,
    "<RESERVED_1040>": 1045,
    "<RESERVED_1041>": 1046,
    "<RESERVED_1042>": 1047,
    "<RESERVED_1043>": 1048,
    "<RESERVED_1044>": 1049,
    "<RESERVED_1045>": 1050,
    "<RESERVED_1046>": 1051,
    "<RESERVED_1047>": 1052,
    "<RESERVED_1048>": 1053,
    "<RESERVED_1049>": 1054,
    "<RESERVED_1050>": 1055,
    "<RESERVED_1051>": 1056,
    "<RESERVED_1052>": 1057,
    "<RESERVED_1053>": 1058,
    "<RESERVED_1054>": 1059,
    "<RESERVED_1055>": 1060,
    "<RESERVED_1056>": 1061,
    "<RESERVED_1057>": 1062,
    "<RESERVED_1058>": 1063,
    "<RESERVED_1059>": 1064,
    "<RESERVED_1060>": 1065,
    "<RESERVED_1061>": 1066,
    "<RESERVED_1062>": 1067,
    "<RESERVED_1063>": 1068,
    "<RESERVED_1064>": 1069,
    "<RESERVED_1065>": 1070,
    "<RESERVED_1066>": 1071,
    "<RESERVED_1067>": 1072,
    "<RESERVED_1068>": 1073,
    "<RESERVED_1069>": 1074,
    "<RESERVED_1070>": 1075,
    "<RESERVED_1071>": 1076,
    "<RESERVED_1072>": 1077,
    "<RESERVED_1073>": 1078,
    "<RESERVED_1074>": 1079,
    "<RESERVED_1075>": 1080,
    "<RESERVED_1076>": 1081,
    "<RESERVED_1077>": 1082,
    "<RESERVED_1078>": 1083,
    "<RESERVED_1079>": 1084,
    "<RESERVED_1080>": 1085,
    "<RESERVED_1081>": 1086,
    "<RESERVED_1082>": 1087,
    "<RESERVED_1083>": 1088,
    "<RESERVED_1084>": 1089,
    "<RESERVED_1085>": 1090,
    "<RESERVED_1086>": 1091,
    "<RESERVED_1087>": 1092,
    "<RESERVED_1088>": 1093,
    "<RESERVED_1089>": 1094,
    "<RESERVED_1090>": 1095,
    "<RESERVED_1091>": 1096,
    "<RESERVED_1092>": 1097,
    "<RESERVED_1093>": 1098,
    "<RESERVED_1094>": 1099,
    "<RESERVED_1095>": 1100,
    "<RESERVED_1096>": 1101,
    "<RESERVED_1097>": 1102,
    "<RESERVED_1098>": 1103,
    "<RESERVED_1099>": 1104,
    "<RESERVED_1100>": 1105,
    "<RESERVED_1101>": 1106,
    "<RESERVED_1102>": 1107,
    "<RESERVED_1103>": 1108,
    "<RESERVED_1104>": 1109,
    "<RESERVED_1105>": 1110,
    "<RESERVED_1106>": 1111,
    "<RESERVED_1107>": 1112,
    "<RESERVED_1108>": 1113,
    "<RESERVED_1109>": 1114,
    "<RESERVED_1110>": 1115,
    "<RESERVED_1111>": 1116,
    "<RESERVED_1112>": 1117,
    "<RESERVED_1113>": 1118,
    "<RESERVED_1114>": 1119,
    "<RESERVED_1115>": 1120,
    "<RESERVED_1116>": 1121,
    "<RESERVED_1117>": 1122,
    "<RESERVED_1118>": 1123,
    "<RESERVED_1119>": 1124,
    "<RESERVED_1120>": 1125,
    "<RESERVED_1121>": 1126,
    "<RESERVED_1122>": 1127,
    "<RESERVED_1123>": 1128,
    "<RESERVED_1124>": 1129,
    "<RESERVED_1125>": 1130,
    "<RESERVED_1126>": 1131,
    "<RESERVED_1127>": 1132,
    "<RESERVED_1128>": 1133,
    "<RESERVED_1129>": 1134,
    "<RESERVED_1130>": 1135,
    "<RESERVED_1131>": 1136,
    "<RESERVED_1132>": 1137,
    "<RESERVED_1133>": 1138,
    "<RESERVED_1134>": 1139,
    "<RESERVED_1135>": 1140,
    "<RESERVED_1136>": 1141,
    "<RESERVED_1137>": 1142,
    "<RESERVED_1138>": 1143,
    "<RESERVED_1139>": 1144,
    "<RESERVED_1140>": 1145,
    "<RESERVED_1141>": 1146,
    "<RESERVED_1142>": 1147,
    "<RESERVED_1143>": 1148,
    "<RESERVED_1144>": 1149,
    "<RESERVED_1145>": 1150,
    "<RESERVED_1146>": 1151,
    "<RESERVED_1147>": 1152,
    "<RESERVED_1148>": 1153,
    "<RESERVED_1149>": 1154,
    "<RESERVED_1150>": 1155,
    "<RESERVED_1151>": 1156,
    "<RESERVED_1152>": 1157,
    "<RESERVED_1153>": 1158,
    "<RESERVED_1154>": 1159,
    "<RESERVED_1155>": 1160,
    "<RESERVED_1156>": 1161,
    "<RESERVED_1157>": 1162,
    "<RESERVED_1158>": 1163,
    "<RESERVED_1159>": 1164,
    "<RESERVED_1160>": 1165,
    "<RESERVED_1161>": 1166,
    "<RESERVED_1162>": 1167,
    "<RESERVED_1163>": 1168,
    "<RESERVED_1164>": 1169,
    "<RESERVED_1165>": 1170,
    "<RESERVED_1166>": 1171,
    "<RESERVED_1167>": 1172,
    "<RESERVED_1168>": 1173,
    "<RESERVED_1169>": 1174,
    "<RESERVED_1170>": 1175,
    "<RESERVED_1171>": 1176,
    "<RESERVED_1172>": 1177,
    "<RESERVED_1173>": 1178,
    "<RESERVED_1174>": 1179,
    "<RESERVED_1175>": 1180,
    "<RESERVED_1176>": 1181,
    "<RESERVED_1177>": 1182,
    "<RESERVED_1178>": 1183,
    "<RESERVED_1179>": 1184,
    "<RESERVED_1180>": 1185,
    "<RESERVED_1181>": 1186,
    "<RESERVED_1182>": 1187,
    "<RESERVED_1183>": 1188,
    "<RESERVED_1184>": 1189,
    "<RESERVED_1185>": 1190,
    "<RESERVED_1186>": 1191,
    "<RESERVED_1187>": 1192,
    "<RESERVED_1188>": 1193,
    "<RESERVED_1189>": 1194,
    "<RESERVED_1190>": 1195,
    "<RESERVED_1191>": 1196,
    "<RESERVED_1192>": 1197,
    "<RESERVED_1193>": 1198,
    "<RESERVED_1194>": 1199,
    "<RESERVED_1195>": 1200,
    "<RESERVED_1196>": 1201,
    "<RESERVED_1197>": 1202,
    "<RESERVED_1198>": 1203,
    "<RESERVED_1199>": 1204,
    "<RESERVED_1200>": 1205,
    "<RESERVED_1201>": 1206,
    "<RESERVED_1202>": 1207,
    "<RESERVED_1203>": 1208,
    "<RESERVED_1204>": 1209,
    "<RESERVED_1205>": 1210,
    "<RESERVED_1206>": 1211,
    "<RESERVED_1207>": 1212,
    "<RESERVED_1208>": 1213,
    "<RESERVED_1209>": 1214,
    "<RESERVED_1210>": 1215,
    "<RESERVED_1211>": 1216,
    "<RESERVED_1212>": 1217,
    "<RESERVED_1213>": 1218,
    "<RESERVED_1214>": 1219,
    "<RESERVED_1215>": 1220,
    "<RESERVED_1216>": 1221,
    "<RESERVED_1217>": 1222,
    "<RESERVED_1218>": 1223,
    "<RESERVED_1219>": 1224,
    "<RESERVED_1220>": 1225,
    "<RESERVED_1221>": 1226,
    "<RESERVED_1222>": 1227,
    "<RESERVED_1223>": 1228,
    "<RESERVED_1224>": 1229,
    "<RESERVED_1225>": 1230,
    "<RESERVED_1226>": 1231,
    "<RESERVED_1227>": 1232,
    "<RESERVED_1228>": 1233,
    "<RESERVED_1229>": 1234,
    "<RESERVED_1230>": 1235,
    "<RESERVED_1231>": 1236,
    "<RESERVED_1232>": 1237,
    "<RESERVED_1233>": 1238,
    "<RESERVED_1234>": 1239,
    "<RESERVED_1235>": 1240,
    "<RESERVED_1236>": 1241,
    "<RESERVED_1237>": 1242,
    "<RESERVED_1238>": 1243,
    "<RESERVED_1239>": 1244,
    "<RESERVED_1240>": 1245,
    "<RESERVED_1241>": 1246,
    "<RESERVED_1242>": 1247,
    "<RESERVED_1243>": 1248,
    "<RESERVED_1244>": 1249,
    "<RESERVED_1245>": 1250,
    "<RESERVED_1246>": 1251,
    "<RESERVED_1247>": 1252,
    "<RESERVED_1248>": 1253,
    "<RESERVED_1249>": 1254,
    "<RESERVED_1250>": 1255,
    "<RESERVED_1251>": 1256,
    "<RESERVED_1252>": 1257,
    "<RESERVED_1253>": 1258,
    "<RESERVED_1254>": 1259,
    "<RESERVED_1255>": 1260,
    "<RESERVED_1256>": 1261,
    "<RESERVED_1257>": 1262,
    "<RESERVED_1258>": 1263,
    "<RESERVED_1259>": 1264,
    "<RESERVED_1260>": 1265,
    "<RESERVED_1261>": 1266,
    "<RESERVED_1262>": 1267,
    "<RESERVED_1263>": 1268,
    "<RESERVED_1264>": 1269,
    "<RESERVED_1265>": 1270,
    "<RESERVED_1266>": 1271,
    "<RESERVED_1267>": 1272,
    "<RESERVED_1268>": 1273,
    "<RESERVED_1269>": 1274,
    "<RESERVED_1270>": 1275,
    "<RESERVED_1271>": 1276,
    "<RESERVED_1272>": 1277,
    "<RESERVED_1273>": 1278,
    "<RESERVED_1274>": 1279,
    "<RESERVED_1275>": 1280,
    "<RESERVED_1276>": 1281,
    "<RESERVED_1277>": 1282,
    "<RESERVED_1278>": 1283,
    "<RESERVED_1279>": 1284,
    "<RESERVED_1280>": 1285,
    "<RESERVED_1281>": 1286,
    "<RESERVED_1282>": 1287,
    "<RESERVED_1283>": 1288,
    "<RESERVED_1284>": 1289,
    "<RESERVED_1285>": 1290,
    "<RESERVED_1286>": 1291,
    "<RESERVED_1287>": 1292,
    "<RESERVED_1288>": 1293,
    "<RESERVED_1289>": 1294,
    "<RESERVED_1290>": 1295,
    "<RESERVED_1291>": 1296,
    "<RESERVED_1292>": 1297,
    "<RESERVED_1293>": 1298,
    "<RESERVED_1294>": 1299,
    "<RESERVED_1295>": 1300,
    "<RESERVED_1296>": 1301,
    "<RESERVED_1297>": 1302,
    "<RESERVED_1298>": 1303,
    "<RESERVED_1299>": 1304,
    "<RESERVED_1300>": 1305,
    "<RESERVED_1301>": 1306,
    "<RESERVED_1302>": 1307,
    "<RESERVED_1303>": 1308,
    "<RESERVED_1304>": 1309,
    "<RESERVED_1305>": 1310,
    "<RESERVED_1306>": 1311,
    "<RESERVED_1307>": 1312,
    "<RESERVED_1308>": 1313,
    "<RESERVED_1309>": 1314,
    "<RESERVED_1310>": 1315,
    "<RESERVED_1311>": 1316,
    "<RESERVED_1312>": 1317,
    "<RESERVED_1313>": 1318,
    "<RESERVED_1314>": 1319,
    "<RESERVED_1315>": 1320,
    "<RESERVED_1316>": 1321,
    "<RESERVED_1317>": 1322,
    "<RESERVED_1318>": 1323,
    "<RESERVED_1319>": 1324,
    "<RESERVED_1320>": 1325,
    "<RESERVED_1321>": 1326,
    "<RESERVED_1322>": 1327,
    "<RESERVED_1323>": 1328,
    "<RESERVED_1324>": 1329,
    "<RESERVED_1325>": 1330,
    "<RESERVED_1326>": 1331,
    "<RESERVED_1327>": 1332,
    "<RESERVED_1328>": 1333,
    "<RESERVED_1329>": 1334,
    "<RESERVED_1330>": 1335,
    "<RESERVED_1331>": 1336,
    "<RESERVED_1332>": 1337,
    "<RESERVED_1333>": 1338,
    "<RESERVED_1334>": 1339,
    "<RESERVED_1335>": 1340,
    "<RESERVED_1336>": 1341,
    "<RESERVED_1337>": 1342,
    "<RESERVED_1338>": 1343,
    "<RESERVED_1339>": 1344,
    "<RESERVED_1340>": 1345,
    "<RESERVED_1341>": 1346,
    "<RESERVED_1342>": 1347,
    "<RESERVED_1343>": 1348,
    "<RESERVED_1344>": 1349,
    "<RESERVED_1345>": 1350,
    "<RESERVED_1346>": 1351,
    "<RESERVED_1347>": 1352,
    "<RESERVED_1348>": 1353,
    "<RESERVED_1349>": 1354,
    "<RESERVED_1350>": 1355,
    "<RESERVED_1351>": 1356,
    "<RESERVED_1352>": 1357,
    "<RESERVED_1353>": 1358,
    "<RESERVED_1354>": 1359,
    "<RESERVED_1355>": 1360,
    "<RESERVED_1356>": 1361,
    "<RESERVED_1357>": 1362,
    "<RESERVED_1358>": 1363,
    "<RESERVED_1359>": 1364,
    "<RESERVED_1360>": 1365,
    "<RESERVED_1361>": 1366,
    "<RESERVED_1362>": 1367,
    "<RESERVED_1363>": 1368,
    "<RESERVED_1364>": 1369,
    "<RESERVED_1365>": 1370,
    "<RESERVED_1366>": 1371,
    "<RESERVED_1367>": 1372,
    "<RESERVED_1368>": 1373,
    "<RESERVED_1369>": 1374,
    "<RESERVED_1370>": 1375,
    "<RESERVED_1371>": 1376,
    "<RESERVED_1372>": 1377,
    "<RESERVED_1373>": 1378,
    "<RESERVED_1374>": 1379,
    "<RESERVED_1375>": 1380,
    "<RESERVED_1376>": 1381,
    "<RESERVED_1377>": 1382,
    "<RESERVED_1378>": 1383,
    "<RESERVED_1379>": 1384,
    "<RESERVED_1380>": 1385,
    "<RESERVED_1381>": 1386,
    "<RESERVED_1382>": 1387,
    "<RESERVED_1383>": 1388,
    "<RESERVED_1384>": 1389,
    "<RESERVED_1385>": 1390,
    "<RESERVED_1386>": 1391,
    "<RESERVED_1387>": 1392,
    "<RESERVED_1388>": 1393,
    "<RESERVED_1389>": 1394,
    "<RESERVED_1390>": 1395,
    "<RESERVED_1391>": 1396,
    "<RESERVED_1392>": 1397,
    "<RESERVED_1393>": 1398,
    "<RESERVED_1394>": 1399,
    "<RESERVED_1395>": 1400,
    "<RESERVED_1396>": 1401,
    "<RESERVED_1397>": 1402,
    "<RESERVED_1398>": 1403,
    "<RESERVED_1399>": 1404,
    "<RESERVED_1400>": 1405,
    "<RESERVED_1401>": 1406,
    "<RESERVED_1402>": 1407,
    "<RESERVED_1403>": 1408,
    "<RESERVED_1404>": 1409,
    "<RESERVED_1405>": 1410,
    "<RESERVED_1406>": 1411,
    "<RESERVED_1407>": 1412,
    "<RESERVED_1408>": 1413,
    "<RESERVED_1409>": 1414,
    "<RESERVED_1410>": 1415,
    "<RESERVED_1411>": 1416,
    "<RESERVED_1412>": 1417,
    "<RESERVED_1413>": 1418,
    "<RESERVED_1414>": 1419,
    "<RESERVED_1415>": 1420,
    "<RESERVED_1416>": 1421,
    "<RESERVED_1417>": 1422,
    "<RESERVED_1418>": 1423,
    "<RESERVED_1419>": 1424,
    "<RESERVED_1420>": 1425,
    "<RESERVED_1421>": 1426,
    "<RESERVED_1422>": 1427,
    "<RESERVED_1423>": 1428,
    "<RESERVED_1424>": 1429,
    "<RESERVED_1425>": 1430,
    "<RESERVED_1426>": 1431,
    "<RESERVED_1427>": 1432,
    "<RESERVED_1428>": 1433,
    "<RESERVED_1429>": 1434,
    "<RESERVED_1430>": 1435,
    "<RESERVED_1431>": 1436,
    "<RESERVED_1432>": 1437,
    "<RESERVED_1433>": 1438,
    "<RESERVED_1434>": 1439,
    "<RESERVED_1435>": 1440,
    "<RESERVED_1436>": 1441,
    "<RESERVED_1437>": 1442,
    "<RESERVED_1438>": 1443,
    "<RESERVED_1439>": 1444,
    "<RESERVED_1440>": 1445,
    "<RESERVED_1441>": 1446,
    "<RESERVED_1442>": 1447,
    "<RESERVED_1443>": 1448,
    "<RESERVED_1444>": 1449,
    "<RESERVED_1445>": 1450,
    "<RESERVED_1446>": 1451,
    "<RESERVED_1447>": 1452,
    "<RESERVED_1448>": 1453,
    "<RESERVED_1449>": 1454,
    "<RESERVED_1450>": 1455,
    "<RESERVED_1451>": 1456,
    "<RESERVED_1452>": 1457,
    "<RESERVED_1453>": 1458,
    "<RESERVED_1454>": 1459,
    "<RESERVED_1455>": 1460,
    "<RESERVED_1456>": 1461,
    "<RESERVED_1457>": 1462,
    "<RESERVED_1458>": 1463,
    "<RESERVED_1459>": 1464,
    "<RESERVED_1460>": 1465,
    "<RESERVED_1461>": 1466,
    "<RESERVED_1462>": 1467,
    "<RESERVED_1463>": 1468,
    "<RESERVED_1464>": 1469,
    "<RESERVED_1465>": 1470,
    "<RESERVED_1466>": 1471,
    "<RESERVED_1467>": 1472,
    "<RESERVED_1468>": 1473,
    "<RESERVED_1469>": 1474,
    "<RESERVED_1470>": 1475,
    "<RESERVED_1471>": 1476,
    "<RESERVED_1472>": 1477,
    "<RESERVED_1473>": 1478,
    "<RESERVED_1474>": 1479,
    "<RESERVED_1475>": 1480,
    "<RESERVED_1476>": 1481,
    "<RESERVED_1477>": 1482,
    "<RESERVED_1478>": 1483,
    "<RESERVED_1479>": 1484,
    "<RESERVED_1480>": 1485,
    "<RESERVED_1481>": 1486,
    "<RESERVED_1482>": 1487,
    "<RESERVED_1483>": 1488,
    "<RESERVED_1484>": 1489,
    "<RESERVED_1485>": 1490,
    "<RESERVED_1486>": 1491,
    "<RESERVED_1487>": 1492,
    "<RESERVED_1488>": 1493,
    "<RESERVED_1489>": 1494,
    "<RESERVED_1490>": 1495,
    "<RESERVED_1491>": 1496,
    "<RESERVED_1492>": 1497,
    "<RESERVED_1493>": 1498,
    "<RESERVED_1494>": 1499,
    "<RESERVED_1495>": 1500,
    "<RESERVED_1496>": 1501,
    "<RESERVED_1497>": 1502,
    "<RESERVED_1498>": 1503,
    "<RESERVED_1499>": 1504,
    "<RESERVED_1500>": 1505,
    "<RESERVED_1501>": 1506,
    "<RESERVED_1502>": 1507,
    "<RESERVED_1503>": 1508,
    "<RESERVED_1504>": 1509,
    "<RESERVED_1505>": 1510,
    "<RESERVED_1506>": 1511,
    "<RESERVED_1507>": 1512,
    "<RESERVED_1508>": 1513,
    "<RESERVED_1509>": 1514,
    "<RESERVED_1510>": 1515,
    "<RESERVED_1511>": 1516,
    "<RESERVED_1512>": 1517,
    "<RESERVED_1513>": 1518,
    "<RESERVED_1514>": 1519,
    "<RESERVED_1515>": 1520,
    "<RESERVED_1516>": 1521,
    "<RESERVED_1517>": 1522,
    "<RESERVED_1518>": 1523,
    "<RESERVED_1519>": 1524,
    "<RESERVED_1520>": 1525,
    "<RESERVED_1521>": 1526,
    "<RESERVED_1522>": 1527,
    "<RESERVED_1523>": 1528,
    "<RESERVED_1524>": 1529,
    "<RESERVED_1525>": 1530,
    "<RESERVED_1526>": 1531,
    "<RESERVED_1527>": 1532,
    "<RESERVED_1528>": 1533,
    "<RESERVED_1529>": 1534,
    "<RESERVED_1530>": 1535,
    "<RESERVED_1531>": 1536,
    "<RESERVED_1532>": 1537,
    "<RESERVED_1533>": 1538,
    "<RESERVED_1534>": 1539,
    "<RESERVED_1535>": 1540,
    "<RESERVED_1536>": 1541,
    "<RESERVED_1537>": 1542,
    "<RESERVED_1538>": 1543,
    "<RESERVED_1539>": 1544,
    "<RESERVED_1540>": 1545,
    "<RESERVED_1541>": 1546,
    "<RESERVED_1542>": 1547,
    "<RESERVED_1543>": 1548,
    "<RESERVED_1544>": 1549,
    "<RESERVED_1545>": 1550,
    "<RESERVED_1546>": 1551,
    "<RESERVED_1547>": 1552,
    "<RESERVED_1548>": 1553,
    "<RESERVED_1549>": 1554,
    "<RESERVED_1550>": 1555,
    "<RESERVED_1551>": 1556,
    "<RESERVED_1552>": 1557,
    "<RESERVED_1553>": 1558,
    "<RESERVED_1554>": 1559,
    "<RESERVED_1555>": 1560,
    "<RESERVED_1556>": 1561,
    "<RESERVED_1557>": 1562,
    "<RESERVED_1558>": 1563,
    "<RESERVED_1559>": 1564,
    "<RESERVED_1560>": 1565,
    "<RESERVED_1561>": 1566,
    "<RESERVED_1562>": 1567,
    "<RESERVED_1563>": 1568,
    "<RESERVED_1564>": 1569,
    "<RESERVED_1565>": 1570,
    "<RESERVED_1566>": 1571,
    "<RESERVED_1567>": 1572,
    "<RESERVED_1568>": 1573,
    "<RESERVED_1569>": 1574,
    "<RESERVED_1570>": 1575,
    "<RESERVED_1571>": 1576,
    "<RESERVED_1572>": 1577,
    "<RESERVED_1573>": 1578,
    "<RESERVED_1574>": 1579,
    "<RESERVED_1575>": 1580,
    "<RESERVED_1576>": 1581,
    "<RESERVED_1577>": 1582,
    "<RESERVED_1578>": 1583,
    "<RESERVED_1579>": 1584,
    "<RESERVED_1580>": 1585,
    "<RESERVED_1581>": 1586,
    "<RESERVED_1582>": 1587,
    "<RESERVED_1583>": 1588,
    "<RESERVED_1584>": 1589,
    "<RESERVED_1585>": 1590,
    "<RESERVED_1586>": 1591,
    "<RESERVED_1587>": 1592,
    "<RESERVED_1588>": 1593,
    "<RESERVED_1589>": 1594,
    "<RESERVED_1590>": 1595,
    "<RESERVED_1591>": 1596,
    "<RESERVED_1592>": 1597,
    "<RESERVED_1593>": 1598,
    "<RESERVED_1594>": 1599,
    "<RESERVED_1595>": 1600,
    "<RESERVED_1596>": 1601,
    "<RESERVED_1597>": 1602,
    "<RESERVED_1598>": 1603,
    "<RESERVED_1599>": 1604,
    "<RESERVED_1600>": 1605,
    "<RESERVED_1601>": 1606,
    "<RESERVED_1602>": 1607,
    "<RESERVED_1603>": 1608,
    "<RESERVED_1604>": 1609,
    "<RESERVED_1605>": 1610,
    "<RESERVED_1606>": 1611,
    "<RESERVED_1607>": 1612,
    "<RESERVED_1608>": 1613,
    "<RESERVED_1609>": 1614,
    "<RESERVED_1610>": 1615,
    "<RESERVED_1611>": 1616,
    "<RESERVED_1612>": 1617,
    "<RESERVED_1613>": 1618,
    "<RESERVED_1614>": 1619,
    "<RESERVED_1615>": 1620,
    "<RESERVED_1616>": 1621,
    "<RESERVED_1617>": 1622,
    "<RESERVED_1618>": 1623,
    "<RESERVED_1619>": 1624,
    "<RESERVED_1620>": 1625,
    "<RESERVED_1621>": 1626,
    "<RESERVED_1622>": 1627,
    "<RESERVED_1623>": 1628,
    "<RESERVED_1624>": 1629,
    "<RESERVED_1625>": 1630,
    "<RESERVED_1626>": 1631,
    "<RESERVED_1627>": 1632,
    "<RESERVED_1628>": 1633,
    "<RESERVED_1629>": 1634,
    "<RESERVED_1630>": 1635,
    "<RESERVED_1631>": 1636,
    "<RESERVED_1632>": 1637,
    "<RESERVED_1633>": 1638,
    "<RESERVED_1634>": 1639,
    "<RESERVED_1635>": 1640,
    "<RESERVED_1636>": 1641,
    "<RESERVED_1637>": 1642,
    "<RESERVED_1638>": 1643,
    "<RESERVED_1639>": 1644,
    "<RESERVED_1640>": 1645,
    "<RESERVED_1641>": 1646,
    "<RESERVED_1642>": 1647,
    "<RESERVED_1643>": 1648,
    "<RESERVED_1644>": 1649,
    "<RESERVED_1645>": 1650,
    "<RESERVED_1646>": 1651,
    "<RESERVED_1647>": 1652,
    "<RESERVED_1648>": 1653,
    "<RESERVED_1649>": 1654,
    "<RESERVED_1650>": 1655,
    "<RESERVED_1651>": 1656,
    "<RESERVED_1652>": 1657,
    "<RESERVED_1653>": 1658,
    "<RESERVED_1654>": 1659,
    "<RESERVED_1655>": 1660,
    "<RESERVED_1656>": 1661,
    "<RESERVED_1657>": 1662,
    "<RESERVED_1658>": 1663,
    "<RESERVED_1659>": 1664,
    "<RESERVED_1660>": 1665,
    "<RESERVED_1661>": 1666,
    "<RESERVED_1662>": 1667,
    "<RESERVED_1663>": 1668,
    "<RESERVED_1664>": 1669,
    "<RESERVED_1665>": 1670,
    "<RESERVED_1666>": 1671,
    "<RESERVED_1667>": 1672,
    "<RESERVED_1668>": 1673,
    "<RESERVED_1669>": 1674,
    "<RESERVED_1670>": 1675,
    "<RESERVED_1671>": 1676,
    "<RESERVED_1672>": 1677,
    "<RESERVED_1673>": 1678,
    "<RESERVED_1674>": 1679,
    "<RESERVED_1675>": 1680,
    "<RESERVED_1676>": 1681,
    "<RESERVED_1677>": 1682,
    "<RESERVED_1678>": 1683,
    "<RESERVED_1679>": 1684,
    "<RESERVED_1680>": 1685,
    "<RESERVED_1681>": 1686,
    "<RESERVED_1682>": 1687,
    "<RESERVED_1683>": 1688,
    "<RESERVED_1684>": 1689,
    "<RESERVED_1685>": 1690,
    "<RESERVED_1686>": 1691,
    "<RESERVED_1687>": 1692,
    "<RESERVED_1688>": 1693,
    "<RESERVED_1689>": 1694,
    "<RESERVED_1690>": 1695,
    "<RESERVED_1691>": 1696,
    "<RESERVED_1692>": 1697,
    "<RESERVED_1693>": 1698,
    "<RESERVED_1694>": 1699,
    "<RESERVED_1695>": 1700,
    "<RESERVED_1696>": 1701,
    "<RESERVED_1697>": 1702,
    "<RESERVED_1698>": 1703,
    "<RESERVED_1699>": 1704,
    "<RESERVED_1700>": 1705,
    "<RESERVED_1701>": 1706,
    "<RESERVED_1702>": 1707,
    "<RESERVED_1703>": 1708,
    "<RESERVED_1704>": 1709,
    "<RESERVED_1705>": 1710,
    "<RESERVED_1706>": 1711,
    "<RESERVED_1707>": 1712,
    "<RESERVED_1708>": 1713,
    "<RESERVED_1709>": 1714,
    "<RESERVED_1710>": 1715,
    "<RESERVED_1711>": 1716,
    "<RESERVED_1712>": 1717,
    "<RESERVED_1713>": 1718,
    "<RESERVED_1714>": 1719,
    "<RESERVED_1715>": 1720,
    "<RESERVED_1716>": 1721,
    "<RESERVED_1717>": 1722,
    "<RESERVED_1718>": 1723,
    "<RESERVED_1719>": 1724,
    "<RESERVED_1720>": 1725,
    "<RESERVED_1721>": 1726,
    "<RESERVED_1722>": 1727,
    "<RESERVED_1723>": 1728,
    "<RESERVED_1724>": 1729,
    "<RESERVED_1725>": 1730,
    "<RESERVED_1726>": 1731,
    "<RESERVED_1727>": 1732,
    "<RESERVED_1728>": 1733,
    "<RESERVED_1729>": 1734,
    "<RESERVED_1730>": 1735,
    "<RESERVED_1731>": 1736,
    "<RESERVED_1732>": 1737,
    "<RESERVED_1733>": 1738,
    "<RESERVED_1734>": 1739,
    "<RESERVED_1735>": 1740,
    "<RESERVED_1736>": 1741,
    "<RESERVED_1737>": 1742,
    "<RESERVED_1738>": 1743,
    "<RESERVED_1739>": 1744,
    "<RESERVED_1740>": 1745,
    "<RESERVED_1741>": 1746,
    "<RESERVED_1742>": 1747,
    "<RESERVED_1743>": 1748,
    "<RESERVED_1744>": 1749,
    "<RESERVED_1745>": 1750,
    "<RESERVED_1746>": 1751,
    "<RESERVED_1747>": 1752,
    "<RESERVED_1748>": 1753,
    "<RESERVED_1749>": 1754,
    "<RESERVED_1750>": 1755,
    "<RESERVED_1751>": 1756,
    "<RESERVED_1752>": 1757,
    "<RESERVED_1753>": 1758,
    "<RESERVED_1754>": 1759,
    "<RESERVED_1755>": 1760,
    "<RESERVED_1756>": 1761,
    "<RESERVED_1757>": 1762,
    "<RESERVED_1758>": 1763,
    "<RESERVED_1759>": 1764,
    "<RESERVED_1760>": 1765,
    "<RESERVED_1761>": 1766,
    "<RESERVED_1762>": 1767,
    "<RESERVED_1763>": 1768,
    "<RESERVED_1764>": 1769,
    "<RESERVED_1765>": 1770,
    "<RESERVED_1766>": 1771,
    "<RESERVED_1767>": 1772,
    "<RESERVED_1768>": 1773,
    "<RESERVED_1769>": 1774,
    "<RESERVED_1770>": 1775,
    "<RESERVED_1771>": 1776,
    "<RESERVED_1772>": 1777,
    "<RESERVED_1773>": 1778,
    "<RESERVED_1774>": 1779,
    "<RESERVED_1775>": 1780,
    "<RESERVED_1776>": 1781,
    "<RESERVED_1777>": 1782,
    "<RESERVED_1778>": 1783,
    "<RESERVED_1779>": 1784,
    "<RESERVED_1780>": 1785,
    "<RESERVED_1781>": 1786,
    "<RESERVED_1782>": 1787,
    "<RESERVED_1783>": 1788,
    "<RESERVED_1784>": 1789,
    "<RESERVED_1785>": 1790,
    "<RESERVED_1786>": 1791,
    "<RESERVED_1787>": 1792,
    "<RESERVED_1788>": 1793,
    "<RESERVED_1789>": 1794,
    "<RESERVED_1790>": 1795,
    "<RESERVED_1791>": 1796,
    "<RESERVED_1792>": 1797,
    "<RESERVED_1793>": 1798,
    "<RESERVED_1794>": 1799,
    "<RESERVED_1795>": 1800,
    "<RESERVED_1796>": 1801,
    "<RESERVED_1797>": 1802,
    "<RESERVED_1798>": 1803,
    "<RESERVED_1799>": 1804,
    "<RESERVED_1800>": 1805,
    "<RESERVED_1801>": 1806,
    "<RESERVED_1802>": 1807,
    "<RESERVED_1803>": 1808,
    "<RESERVED_1804>": 1809,
    "<RESERVED_1805>": 1810,
    "<RESERVED_1806>": 1811,
    "<RESERVED_1807>": 1812,
    "<RESERVED_1808>": 1813,
    "<RESERVED_1809>": 1814,
    "<RESERVED_1810>": 1815,
    "<RESERVED_1811>": 1816,
    "<RESERVED_1812>": 1817,
    "<RESERVED_1813>": 1818,
    "<RESERVED_1814>": 1819,
    "<RESERVED_1815>": 1820,
    "<RESERVED_1816>": 1821,
    "<RESERVED_1817>": 1822,
    "<RESERVED_1818>": 1823,
    "<RESERVED_1819>": 1824,
    "<RESERVED_1820>": 1825,
    "<RESERVED_1821>": 1826,
    "<RESERVED_1822>": 1827,
    "<RESERVED_1823>": 1828,
    "<RESERVED_1824>": 1829,
    "<RESERVED_1825>": 1830,
    "<RESERVED_1826>": 1831,
    "<RESERVED_1827>": 1832,
    "<RESERVED_1828>": 1833,
    "<RESERVED_1829>": 1834,
    "<RESERVED_1830>": 1835,
    "<RESERVED_1831>": 1836,
    "<RESERVED_1832>": 1837,
    "<RESERVED_1833>": 1838,
    "<RESERVED_1834>": 1839,
    "<RESERVED_1835>": 1840,
    "<RESERVED_1836>": 1841,
    "<RESERVED_1837>": 1842,
    "<RESERVED_1838>": 1843,
    "<RESERVED_1839>": 1844,
    "<RESERVED_1840>": 1845,
    "<RESERVED_1841>": 1846,
    "<RESERVED_1842>": 1847,
    "<RESERVED_1843>": 1848,
    "<RESERVED_1844>": 1849,
    "<RESERVED_1845>": 1850,
    "<RESERVED_1846>": 1851,
    "<RESERVED_1847>": 1852,
    "<RESERVED_1848>": 1853,
    "<RESERVED_1849>": 1854,
    "<RESERVED_1850>": 1855,
    "<RESERVED_1851>": 1856,
    "<RESERVED_1852>": 1857,
    "<RESERVED_1853>": 1858,
    "<RESERVED_1854>": 1859,
    "<RESERVED_1855>": 1860,
    "<RESERVED_1856>": 1861,
    "<RESERVED_1857>": 1862,
    "<RESERVED_1858>": 1863,
    "<RESERVED_1859>": 1864,
    "<RESERVED_1860>": 1865,
    "<RESERVED_1861>": 1866,
    "<RESERVED_1862>": 1867,
    "<RESERVED_1863>": 1868,
    "<RESERVED_1864>": 1869,
    "<RESERVED_1865>": 1870,
    "<RESERVED_1866>": 1871,
    "<RESERVED_1867>": 1872,
    "<RESERVED_1868>": 1873,
    "<RESERVED_1869>": 1874,
    "<RESERVED_1870>": 1875,
    "<RESERVED_1871>": 1876,
    "<RESERVED_1872>": 1877,
    "<RESERVED_1873>": 1878,
    "<RESERVED_1874>": 1879,
    "<RESERVED_1875>": 1880,
    "<RESERVED_1876>": 1881,
    "<RESERVED_1877>": 1882,
    "<RESERVED_1878>": 1883,
    "<RESERVED_1879>": 1884,
    "<RESERVED_1880>": 1885,
    "<RESERVED_1881>": 1886,
    "<RESERVED_1882>": 1887,
    "<RESERVED_1883>": 1888,
    "<RESERVED_1884>": 1889,
    "<RESERVED_1885>": 1890,
    "<RESERVED_1886>": 1891,
    "<RESERVED_1887>": 1892,
    "<RESERVED_1888>": 1893,
    "<RESERVED_1889>": 1894,
    "<RESERVED_1890>": 1895,
    "<RESERVED_1891>": 1896,
    "<RESERVED_1892>": 1897,
    "<RESERVED_1893>": 1898,
    "<RESERVED_1894>": 1899,
    "<RESERVED_1895>": 1900,
    "<RESERVED_1896>": 1901,
    "<RESERVED_1897>": 1902,
    "<RESERVED_1898>": 1903,
    "<RESERVED_1899>": 1904,
    "<RESERVED_1900>": 1905,
    "<RESERVED_1901>": 1906,
    "<RESERVED_1902>": 1907,
    "<RESERVED_1903>": 1908,
    "<RESERVED_1904>": 1909,
    "<RESERVED_1905>": 1910,
    "<RESERVED_1906>": 1911,
    "<RESERVED_1907>": 1912,
    "<RESERVED_1908>": 1913,
    "<RESERVED_1909>": 1914,
    "<RESERVED_1910>": 1915,
    "<RESERVED_1911>": 1916,
    "<RESERVED_1912>": 1917,
    "<RESERVED_1913>": 1918,
    "<RESERVED_1914>": 1919,
    "<RESERVED_1915>": 1920,
    "<RESERVED_1916>": 1921,
    "<RESERVED_1917>": 1922,
    "<RESERVED_1918>": 1923,
    "<RESERVED_1919>": 1924,
    "<RESERVED_1920>": 1925,
    "<RESERVED_1921>": 1926,
    "<RESERVED_1922>": 1927,
    "<RESERVED_1923>": 1928,
    "<RESERVED_1924>": 1929,
    "<RESERVED_1925>": 1930,
    "<RESERVED_1926>": 1931,
    "<RESERVED_1927>": 1932,
    "<RESERVED_1928>": 1933,
    "<RESERVED_1929>": 1934,
    "<RESERVED_1930>": 1935,
    "<RESERVED_1931>": 1936,
    "<RESERVED_1932>": 1937,
    "<RESERVED_1933>": 1938,
    "<RESERVED_1934>": 1939,
    "<RESERVED_1935>": 1940,
    "<RESERVED_1936>": 1941,
    "<RESERVED_1937>": 1942,
    "<RESERVED_1938>": 1943,
    "<RESERVED_1939>": 1944,
    "<RESERVED_1940>": 1945,
    "<RESERVED_1941>": 1946,
    "<RESERVED_1942>": 1947,
    "<RESERVED_1943>": 1948,
    "<RESERVED_1944>": 1949,
    "<RESERVED_1945>": 1950,
    "<RESERVED_1946>": 1951,
    "<RESERVED_1947>": 1952,
    "<RESERVED_1948>": 1953,
    "<RESERVED_1949>": 1954,
    "<RESERVED_1950>": 1955,
    "<RESERVED_1951>": 1956,
    "<RESERVED_1952>": 1957,
    "<RESERVED_1953>": 1958,
    "<RESERVED_1954>": 1959,
    "<RESERVED_1955>": 1960,
    "<RESERVED_1956>": 1961,
    "<RESERVED_1957>": 1962,
    "<RESERVED_1958>": 1963,
    "<RESERVED_1959>": 1964,
    "<RESERVED_1960>": 1965,
    "<RESERVED_1961>": 1966,
    "<RESERVED_1962>": 1967,
    "<RESERVED_1963>": 1968,
    "<RESERVED_1964>": 1969,
    "<RESERVED_1965>": 1970,
    "<RESERVED_1966>": 1971,
    "<RESERVED_1967>": 1972,
    "<RESERVED_1968>": 1973,
    "<RESERVED_1969>": 1974,
    "<RESERVED_1970>": 1975,
    "<RESERVED_1971>": 1976,
    "<RESERVED_1972>": 1977,
    "<RESERVED_1973>": 1978,
    "<RESERVED_1974>": 1979,
    "<RESERVED_1975>": 1980,
    "<RESERVED_1976>": 1981,
    "<RESERVED_1977>": 1982,
    "<RESERVED_1978>": 1983,
    "<RESERVED_1979>": 1984,
    "<RESERVED_1980>": 1985,
    "<RESERVED_1981>": 1986,
    "<RESERVED_1982>": 1987,
    "<RESERVED_1983>": 1988,
    "<RESERVED_1984>": 1989,
    "<RESERVED_1985>": 1990,
    "<RESERVED_1986>": 1991,
    "<RESERVED_1987>": 1992,
    "<RESERVED_1988>": 1993,
    "<RESERVED_1989>": 1994,
    "<RESERVED_1990>": 1995,
    "<RESERVED_1991>": 1996,
    "<RESERVED_1992>": 1997,
    "<RESERVED_1993>": 1998,
    "<RESERVED_1994>": 1999,
    "<RESERVED_1995>": 2000,
    "<RESERVED_1996>": 2001,
    "<RESERVED_1997>": 2002,
    "<RESERVED_1998>": 2003,
    "<RESERVED_1999>": 2004,
    "<RESERVED_2000>": 2005,
    "<RESERVED_2001>": 2006,
    "<RESERVED_2002>": 2007,
    "<RESERVED_2003>": 2008,
    "<RESERVED_2004>": 2009,
    "<RESERVED_2005>": 2010,
    "<RESERVED_2006>": 2011,
    "<RESERVED_2007>": 2012,
    "<RESERVED_2008>": 2013,
    "<RESERVED_2009>": 2014,
    "<RESERVED_2010>": 2015,
    "<RESERVED_2011>": 2016,
    "<RESERVED_2012>": 2017,
    "<RESERVED_2013>": 2018,
    "<RESERVED_2014>": 2019,
    "<RESERVED_2015>": 2020,
    "<RESERVED_2016>": 2021,
    "<RESERVED_2017>": 2022,
    "<RESERVED_2018>": 2023,
    "<RESERVED_2019>": 2024,
    "<RESERVED_2020>": 2025,
    "<RESERVED_2021>": 2026,
    "<RESERVED_2022>": 2027,
    "<RESERVED_2023>": 2028,
    "<RESERVED_2024>": 2029,
    "<RESERVED_2025>": 2030,
    "<RESERVED_2026>": 2031,
    "<RESERVED_2027>": 2032,
    "<RESERVED_2028>": 2033,
    "<RESERVED_2029>": 2034,
    "<RESERVED_2030>": 2035,
    "<RESERVED_2031>": 2036,
    "<RESERVED_2032>": 2037,
    "<RESERVED_2033>": 2038,
    "<RESERVED_2034>": 2039,
    "<RESERVED_2035>": 2040,
    "<RESERVED_2036>": 2041,
    "<RESERVED_2037>": 2042,
    "<RESERVED_2038>": 2043,
    "<RESERVED_2039>": 2044,
    "<RESERVED_2040>": 2045,
    "<RESERVED_2041>": 2046,
    "<RESERVED_2042>": 2047,
    "<RESERVED_2043>": 2048,
    "<RESERVED_2044>": 2049,
    "<RESERVED_2045>": 2050,
    "<RESERVED_2046>": 2051,
    "<RESERVED_2047>": 2052,
    "<RESERVED_2048>": 2053,
    "<RESERVED_2049>": 2054,
    "<RESERVED_2050>": 2055,
    "<RESERVED_2051>": 2056,
    "<RESERVED_2052>": 2057,
    "<RESERVED_2053>": 2058,
    "<RESERVED_2054>": 2059,
    "<RESERVED_2055>": 2060,
    "<RESERVED_2056>": 2061,
    "<RESERVED_2057>": 2062,
    "<RESERVED_2058>": 2063,
    "<RESERVED_2059>": 2064,
    "<RESERVED_2060>": 2065,
    "<RESERVED_2061>": 2066,
    "<RESERVED_2062>": 2067,
    "<RESERVED_2063>": 2068,
    "<RESERVED_2064>": 2069,
    "<RESERVED_2065>": 2070,
    "<RESERVED_2066>": 2071,
    "<RESERVED_2067>": 2072,
    "<RESERVED_2068>": 2073,
    "<RESERVED_2069>": 2074,
    "<RESERVED_2070>": 2075,
    "<RESERVED_2071>": 2076,
    "<RESERVED_2072>": 2077,
    "<RESERVED_2073>": 2078,
    "<RESERVED_2074>": 2079,
    "<RESERVED_2075>": 2080,
    "<RESERVED_2076>": 2081,
    "<RESERVED_2077>": 2082,
    "<RESERVED_2078>": 2083,
    "<RESERVED_2079>": 2084,
    "<RESERVED_2080>": 2085,
    "<RESERVED_2081>": 2086,
    "<RESERVED_2082>": 2087,
    "<RESERVED_2083>": 2088,
    "<RESERVED_2084>": 2089,
    "<RESERVED_2085>": 2090,
    "<RESERVED_2086>": 2091,
    "<RESERVED_2087>": 2092,
    "<RESERVED_2088>": 2093,
    "<RESERVED_2089>": 2094,
    "<RESERVED_2090>": 2095,
    "<RESERVED_2091>": 2096,
    "<RESERVED_2092>": 2097,
    "<RESERVED_2093>": 2098,
    "<RESERVED_2094>": 2099,
    "<RESERVED_2095>": 2100,
    "<RESERVED_2096>": 2101,
    "<RESERVED_2097>": 2102,
    "<RESERVED_2098>": 2103,
    "<RESERVED_2099>": 2104,
    "<RESERVED_2100>": 2105,
    "<RESERVED_2101>": 2106,
    "<RESERVED_2102>": 2107,
    "<RESERVED_2103>": 2108,
    "<RESERVED_2104>": 2109,
    "<RESERVED_2105>": 2110,
    "<RESERVED_2106>": 2111,
    "<RESERVED_2107>": 2112,
    "<RESERVED_2108>": 2113,
    "<RESERVED_2109>": 2114,
    "<RESERVED_2110>": 2115,
    "<RESERVED_2111>": 2116,
    "<RESERVED_2112>": 2117,
    "<RESERVED_2113>": 2118,
    "<RESERVED_2114>": 2119,
    "<RESERVED_2115>": 2120,
    "<RESERVED_2116>": 2121,
    "<RESERVED_2117>": 2122,
    "<RESERVED_2118>": 2123,
    "<RESERVED_2119>": 2124,
    "<RESERVED_2120>": 2125,
    "<RESERVED_2121>": 2126,
    "<RESERVED_2122>": 2127,
    "<RESERVED_2123>": 2128,
    "<RESERVED_2124>": 2129,
    "<RESERVED_2125>": 2130,
    "<RESERVED_2126>": 2131,
    "<RESERVED_2127>": 2132,
    "<RESERVED_2128>": 2133,
    "<RESERVED_2129>": 2134,
    "<RESERVED_2130>": 2135,
    "<RESERVED_2131>": 2136,
    "<RESERVED_2132>": 2137,
    "<RESERVED_2133>": 2138,
    "<RESERVED_2134>": 2139,
    "<RESERVED_2135>": 2140,
    "<RESERVED_2136>": 2141,
    "<RESERVED_2137>": 2142,
    "<RESERVED_2138>": 2143,
    "<RESERVED_2139>": 2144,
    "<RESERVED_2140>": 2145,
    "<RESERVED_2141>": 2146,
    "<RESERVED_2142>": 2147,
    "<RESERVED_2143>": 2148,
    "<RESERVED_2144>": 2149,
    "<RESERVED_2145>": 2150,
    "<RESERVED_2146>": 2151,
    "<RESERVED_2147>": 2152,
    "<RESERVED_2148>": 2153,
    "<RESERVED_2149>": 2154,
    "<RESERVED_2150>": 2155,
    "<RESERVED_2151>": 2156,
    "<RESERVED_2152>": 2157,
    "<RESERVED_2153>": 2158,
    "<RESERVED_2154>": 2159,
    "<RESERVED_2155>": 2160,
    "<RESERVED_2156>": 2161,
    "<RESERVED_2157>": 2162,
    "<RESERVED_2158>": 2163,
    "<RESERVED_2159>": 2164,
    "<RESERVED_2160>": 2165,
    "<RESERVED_2161>": 2166,
    "<RESERVED_2162>": 2167,
    "<RESERVED_2163>": 2168,
    "<RESERVED_2164>": 2169,
    "<RESERVED_2165>": 2170,
    "<RESERVED_2166>": 2171,
    "<RESERVED_2167>": 2172,
    "<RESERVED_2168>": 2173,
    "<RESERVED_2169>": 2174,
    "<RESERVED_2170>": 2175,
    "<RESERVED_2171>": 2176,
    "<RESERVED_2172>": 2177,
    "<RESERVED_2173>": 2178,
    "<RESERVED_2174>": 2179,
    "<RESERVED_2175>": 2180,
    "<RESERVED_2176>": 2181,
    "<RESERVED_2177>": 2182,
    "<RESERVED_2178>": 2183,
    "<RESERVED_2179>": 2184,
    "<RESERVED_2180>": 2185,
    "<RESERVED_2181>": 2186,
    "<RESERVED_2182>": 2187,
    "<RESERVED_2183>": 2188,
    "<RESERVED_2184>": 2189,
    "<RESERVED_2185>": 2190,
    "<RESERVED_2186>": 2191,
    "<RESERVED_2187>": 2192,
    "<RESERVED_2188>": 2193,
    "<RESERVED_2189>": 2194,
    "<RESERVED_2190>": 2195,
    "<RESERVED_2191>": 2196,
    "<RESERVED_2192>": 2197,
    "<RESERVED_2193>": 2198,
    "<RESERVED_2194>": 2199,
    "<RESERVED_2195>": 2200,
    "<RESERVED_2196>": 2201,
    "<RESERVED_2197>": 2202,
    "<RESERVED_2198>": 2203,
    "<RESERVED_2199>": 2204,
    "<RESERVED_2200>": 2205,
    "<RESERVED_2201>": 2206,
    "<RESERVED_2202>": 2207,
    "<RESERVED_2203>": 2208,
    "<RESERVED_2204>": 2209,
    "<RESERVED_2205>": 2210,
    "<RESERVED_2206>": 2211,
    "<RESERVED_2207>": 2212,
    "<RESERVED_2208>": 2213,
    "<RESERVED_2209>": 2214,
    "<RESERVED_2210>": 2215,
    "<RESERVED_2211>": 2216,
    "<RESERVED_2212>": 2217,
    "<RESERVED_2213>": 2218,
    "<RESERVED_2214>": 2219,
    "<RESERVED_2215>": 2220,
    "<RESERVED_2216>": 2221,
    "<RESERVED_2217>": 2222,
    "<RESERVED_2218>": 2223,
    "<RESERVED_2219>": 2224,
    "<RESERVED_2220>": 2225,
    "<RESERVED_2221>": 2226,
    "<RESERVED_2222>": 2227,
    "<RESERVED_2223>": 2228,
    "<RESERVED_2224>": 2229,
    "<RESERVED_2225>": 2230,
    "<RESERVED_2226>": 2231,
    "<RESERVED_2227>": 2232,
    "<RESERVED_2228>": 2233,
    "<RESERVED_2229>": 2234,
    "<RESERVED_2230>": 2235,
    "<RESERVED_2231>": 2236,
    "<RESERVED_2232>": 2237,
    "<RESERVED_2233>": 2238,
    "<RESERVED_2234>": 2239,
    "<RESERVED_2235>": 2240,
    "<RESERVED_2236>": 2241,
    "<RESERVED_2237>": 2242,
    "<RESERVED_2238>": 2243,
    "<RESERVED_2239>": 2244,
    "<RESERVED_2240>": 2245,
    "<RESERVED_2241>": 2246,
    "<RESERVED_2242>": 2247,
    "<RESERVED_2243>": 2248,
    "<RESERVED_2244>": 2249,
    "<RESERVED_2245>": 2250,
    "<RESERVED_2246>": 2251,
    "<RESERVED_2247>": 2252,
    "<RESERVED_2248>": 2253,
    "<RESERVED_2249>": 2254,
    "<RESERVED_2250>": 2255,
    "<RESERVED_2251>": 2256,
    "<RESERVED_2252>": 2257,
    "<RESERVED_2253>": 2258,
    "<RESERVED_2254>": 2259,
    "<RESERVED_2255>": 2260,
    "<RESERVED_2256>": 2261,
    "<RESERVED_2257>": 2262,
    "<RESERVED_2258>": 2263,
    "<RESERVED_2259>": 2264,
    "<RESERVED_2260>": 2265,
    "<RESERVED_2261>": 2266,
    "<RESERVED_2262>": 2267,
    "<RESERVED_2263>": 2268,
    "<RESERVED_2264>": 2269,
    "<RESERVED_2265>": 2270,
    "<RESERVED_2266>": 2271,
    "<RESERVED_2267>": 2272,
    "<RESERVED_2268>": 2273,
    "<RESERVED_2269>": 2274,
    "<RESERVED_2270>": 2275,
    "<RESERVED_2271>": 2276,
    "<RESERVED_2272>": 2277,
    "<RESERVED_2273>": 2278,
    "<RESERVED_2274>": 2279,
    "<RESERVED_2275>": 2280,
    "<RESERVED_2276>": 2281,
    "<RESERVED_2277>": 2282,
    "<RESERVED_2278>": 2283,
    "<RESERVED_2279>": 2284,
    "<RESERVED_2280>": 2285,
    "<RESERVED_2281>": 2286,
    "<RESERVED_2282>": 2287,
    "<RESERVED_2283>": 2288,
    "<RESERVED_2284>": 2289,
    "<RESERVED_2285>": 2290,
    "<RESERVED_2286>": 2291,
    "<RESERVED_2287>": 2292,
    "<RESERVED_2288>": 2293,
    "<RESERVED_2289>": 2294,
    "<RESERVED_2290>": 2295,
    "<RESERVED_2291>": 2296,
    "<RESERVED_2292>": 2297,
    "<RESERVED_2293>": 2298,
    "<RESERVED_2294>": 2299,
    "<RESERVED_2295>": 2300,
    "<RESERVED_2296>": 2301,
    "<RESERVED_2297>": 2302,
    "<RESERVED_2298>": 2303,
    "<RESERVED_2299>": 2304,
    "<RESERVED_2300>": 2305,
    "<RESERVED_2301>": 2306,
    "<RESERVED_2302>": 2307,
    "<RESERVED_2303>": 2308,
    "<RESERVED_2304>": 2309,
    "<RESERVED_2305>": 2310,
    "<RESERVED_2306>": 2311,
    "<RESERVED_2307>": 2312,
    "<RESERVED_2308>": 2313,
    "<RESERVED_2309>": 2314,
    "<RESERVED_2310>": 2315,
    "<RESERVED_2311>": 2316,
    "<RESERVED_2312>": 2317,
    "<RESERVED_2313>": 2318,
    "<RESERVED_2314>": 2319,
    "<RESERVED_2315>": 2320,
    "<RESERVED_2316>": 2321,
    "<RESERVED_2317>": 2322,
    "<RESERVED_2318>": 2323,
    "<RESERVED_2319>": 2324,
    "<RESERVED_2320>": 2325,
    "<RESERVED_2321>": 2326,
    "<RESERVED_2322>": 2327,
    "<RESERVED_2323>": 2328,
    "<RESERVED_2324>": 2329,
    "<RESERVED_2325>": 2330,
    "<RESERVED_2326>": 2331,
    "<RESERVED_2327>": 2332,
    "<RESERVED_2328>": 2333,
    "<RESERVED_2329>": 2334,
    "<RESERVED_2330>": 2335,
    "<RESERVED_2331>": 2336,
    "<RESERVED_2332>": 2337,
    "<RESERVED_2333>": 2338,
    "<RESERVED_2334>": 2339,
    "<RESERVED_2335>": 2340,
    "<RESERVED_2336>": 2341,
    "<RESERVED_2337>": 2342,
    "<RESERVED_2338>": 2343,
    "<RESERVED_2339>": 2344,
    "<RESERVED_2340>": 2345,
    "<RESERVED_2341>": 2346,
    "<RESERVED_2342>": 2347,
    "<RESERVED_2343>": 2348,
    "<RESERVED_2344>": 2349,
    "<RESERVED_2345>": 2350,
    "<RESERVED_2346>": 2351,
    "<RESERVED_2347>": 2352,
    "<RESERVED_2348>": 2353,
    "<RESERVED_2349>": 2354,
    "<RESERVED_2350>": 2355,
    "<RESERVED_2351>": 2356,
    "<RESERVED_2352>": 2357,
    "<RESERVED_2353>": 2358,
    "<RESERVED_2354>": 2359,
    "<RESERVED_2355>": 2360,
    "<RESERVED_2356>": 2361,
    "<RESERVED_2357>": 2362,
    "<RESERVED_2358>": 2363,
    "<RESERVED_2359>": 2364,
    "<RESERVED_2360>": 2365,
    "<RESERVED_2361>": 2366,
    "<RESERVED_2362>": 2367,
    "<RESERVED_2363>": 2368,
    "<RESERVED_2364>": 2369,
    "<RESERVED_2365>": 2370,
    "<RESERVED_2366>": 2371,
    "<RESERVED_2367>": 2372,
    "<RESERVED_2368>": 2373,
    "<RESERVED_2369>": 2374,
    "<RESERVED_2370>": 2375,
    "<RESERVED_2371>": 2376,
    "<RESERVED_2372>": 2377,
    "<RESERVED_2373>": 2378,
    "<RESERVED_2374>": 2379,
    "<RESERVED_2375>": 2380,
    "<RESERVED_2376>": 2381,
    "<RESERVED_2377>": 2382,
    "<RESERVED_2378>": 2383,
    "<RESERVED_2379>": 2384,
    "<RESERVED_2380>": 2385,
    "<RESERVED_2381>": 2386,
    "<RESERVED_2382>": 2387,
    "<RESERVED_2383>": 2388,
    "<RESERVED_2384>": 2389,
    "<RESERVED_2385>": 2390,
    "<RESERVED_2386>": 2391,
    "<RESERVED_2387>": 2392,
    "<RESERVED_2388>": 2393,
    "<RESERVED_2389>": 2394,
    "<RESERVED_2390>": 2395,
    "<RESERVED_2391>": 2396,
    "<RESERVED_2392>": 2397,
    "<RESERVED_2393>": 2398,
    "<RESERVED_2394>": 2399,
    "<RESERVED_2395>": 2400,
    "<RESERVED_2396>": 2401,
    "<RESERVED_2397>": 2402,
    "<RESERVED_2398>": 2403,
    "<RESERVED_2399>": 2404,
    "<RESERVED_2400>": 2405,
    "<RESERVED_2401>": 2406,
    "<RESERVED_2402>": 2407,
    "<RESERVED_2403>": 2408,
    "<RESERVED_2404>": 2409,
    "<RESERVED_2405>": 2410,
    "<RESERVED_2406>": 2411,
    "<RESERVED_2407>": 2412,
    "<RESERVED_2408>": 2413,
    "<RESERVED_2409>": 2414,
    "<RESERVED_2410>": 2415,
    "<RESERVED_2411>": 2416,
    "<RESERVED_2412>": 2417,
    "<RESERVED_2413>": 2418,
    "<RESERVED_2414>": 2419,
    "<RESERVED_2415>": 2420,
    "<RESERVED_2416>": 2421,
    "<RESERVED_2417>": 2422,
    "<RESERVED_2418>": 2423,
    "<RESERVED_2419>": 2424,
    "<RESERVED_2420>": 2425,
    "<RESERVED_2421>": 2426,
    "<RESERVED_2422>": 2427,
    "<RESERVED_2423>": 2428,
    "<RESERVED_2424>": 2429,
    "<RESERVED_2425>": 2430,
    "<RESERVED_2426>": 2431,
    "<RESERVED_2427>": 2432,
    "<RESERVED_2428>": 2433,
    "<RESERVED_2429>": 2434,
    "<RESERVED_2430>": 2435,
    "<RESERVED_2431>": 2436,
    "<RESERVED_2432>": 2437,
    "<RESERVED_2433>": 2438,
    "<RESERVED_2434>": 2439,
    "<RESERVED_2435>": 2440,
    "<RESERVED_2436>": 2441,
    "<RESERVED_2437>": 2442,
    "<RESERVED_2438>": 2443,
    "<RESERVED_2439>": 2444,
    "<RESERVED_2440>": 2445,
    "<RESERVED_2441>": 2446,
    "<RESERVED_2442>": 2447,
    "<RESERVED_2443>": 2448,
    "<RESERVED_2444>": 2449,
    "<RESERVED_2445>": 2450,
    "<RESERVED_2446>": 2451,
    "<RESERVED_2447>": 2452,
    "<RESERVED_2448>": 2453,
    "<RESERVED_2449>": 2454,
    "<RESERVED_2450>": 2455,
    "<RESERVED_2451>": 2456,
    "<RESERVED_2452>": 2457,
    "<RESERVED_2453>": 2458,
    "<RESERVED_2454>": 2459,
    "<RESERVED_2455>": 2460,
    "<RESERVED_2456>": 2461,
    "<RESERVED_2457>": 2462,
    "<RESERVED_2458>": 2463,
    "<RESERVED_2459>": 2464,
    "<RESERVED_2460>": 2465,
    "<RESERVED_2461>": 2466,
    "<RESERVED_2462>": 2467,
    "<RESERVED_2463>": 2468,
    "<RESERVED_2464>": 2469,
    "<RESERVED_2465>": 2470,
    "<RESERVED_2466>": 2471,
    "<RESERVED_2467>": 2472,
    "<RESERVED_2468>": 2473,
    "<RESERVED_2469>": 2474,
    "<RESERVED_2470>": 2475,
    "<RESERVED_2471>": 2476,
    "<RESERVED_2472>": 2477,
    "<RESERVED_2473>": 2478,
    "<RESERVED_2474>": 2479,
    "<RESERVED_2475>": 2480,
    "<RESERVED_2476>": 2481,
    "<RESERVED_2477>": 2482,
    "<RESERVED_2478>": 2483,
    "<RESERVED_2479>": 2484,
    "<RESERVED_2480>": 2485,
    "<RESERVED_2481>": 2486,
    "<RESERVED_2482>": 2487,
    "<RESERVED_2483>": 2488,
    "<RESERVED_2484>": 2489,
    "<RESERVED_2485>": 2490,
    "<RESERVED_2486>": 2491,
    "<RESERVED_2487>": 2492,
    "<RESERVED_2488>": 2493,
    "<RESERVED_2489>": 2494,
    "<RESERVED_2490>": 2495,
    "<RESERVED_2491>": 2496,
    "<RESERVED_2492>": 2497,
    "<RESERVED_2493>": 2498,
    "<RESERVED_2494>": 2499,
    "<RESERVED_2495>": 2500,
    "<RESERVED_2496>": 2501,
    "<RESERVED_2497>": 2502,
    "<RESERVED_2498>": 2503,
    "<RESERVED_2499>": 2504,
    "<RESERVED_2500>": 2505,
    "<RESERVED_2501>": 2506,
    "<RESERVED_2502>": 2507,
    "<RESERVED_2503>": 2508,
    "<RESERVED_2504>": 2509,
    "<RESERVED_2505>": 2510,
    "<RESERVED_2506>": 2511,
    "<RESERVED_2507>": 2512,
    "<RESERVED_2508>": 2513,
    "<RESERVED_2509>": 2514,
    "<RESERVED_2510>": 2515,
    "<RESERVED_2511>": 2516,
    "<RESERVED_2512>": 2517,
    "<RESERVED_2513>": 2518,
    "<RESERVED_2514>": 2519,
    "<RESERVED_2515>": 2520,
    "<RESERVED_2516>": 2521,
    "<RESERVED_2517>": 2522,
    "<RESERVED_2518>": 2523,
    "<RESERVED_2519>": 2524,
    "<RESERVED_2520>": 2525,
    "<RESERVED_2521>": 2526,
    "<RESERVED_2522>": 2527,
    "<RESERVED_2523>": 2528,
    "<RESERVED_2524>": 2529,
    "<RESERVED_2525>": 2530,
    "<RESERVED_2526>": 2531,
    "<RESERVED_2527>": 2532,
    "<RESERVED_2528>": 2533,
    "<RESERVED_2529>": 2534,
    "<RESERVED_2530>": 2535,
    "<RESERVED_2531>": 2536,
    "<RESERVED_2532>": 2537,
    "<RESERVED_2533>": 2538,
    "<RESERVED_2534>": 2539,
    "<RESERVED_2535>": 2540,
    "<RESERVED_2536>": 2541,
    "<RESERVED_2537>": 2542,
    "<RESERVED_2538>": 2543,
    "<RESERVED_2539>": 2544,
    "<RESERVED_2540>": 2545,
    "<RESERVED_2541>": 2546,
    "<RESERVED_2542>": 2547,
    "<RESERVED_2543>": 2548,
    "<RESERVED_2544>": 2549,
    "<RESERVED_2545>": 2550,
    "<RESERVED_2546>": 2551,
    "<RESERVED_2547>": 2552,
    "<RESERVED_2548>": 2553,
    "<RESERVED_2549>": 2554,
    "<RESERVED_2550>": 2555,
    "<RESERVED_2551>": 2556,
    "<RESERVED_2552>": 2557,
    "<RESERVED_2553>": 2558,
    "<RESERVED_2554>": 2559,
    "<RESERVED_2555>": 2560,
    "<RESERVED_2556>": 2561,
    "<RESERVED_2557>": 2562,
    "<RESERVED_2558>": 2563,
    "<RESERVED_2559>": 2564,
    "<RESERVED_2560>": 2565,
    "<RESERVED_2561>": 2566,
    "<RESERVED_2562>": 2567,
    "<RESERVED_2563>": 2568,
    "<RESERVED_2564>": 2569,
    "<RESERVED_2565>": 2570,
    "<RESERVED_2566>": 2571,
    "<RESERVED_2567>": 2572,
    "<RESERVED_2568>": 2573,
    "<RESERVED_2569>": 2574,
    "<RESERVED_2570>": 2575,
    "<RESERVED_2571>": 2576,
    "<RESERVED_2572>": 2577,
    "<RESERVED_2573>": 2578,
    "<RESERVED_2574>": 2579,
    "<RESERVED_2575>": 2580,
    "<RESERVED_2576>": 2581,
    "<RESERVED_2577>": 2582,
    "<RESERVED_2578>": 2583,
    "<RESERVED_2579>": 2584,
    "<RESERVED_2580>": 2585,
    "<RESERVED_2581>": 2586,
    "<RESERVED_2582>": 2587,
    "<RESERVED_2583>": 2588,
    "<RESERVED_2584>": 2589,
    "<RESERVED_2585>": 2590,
    "<RESERVED_2586>": 2591,
    "<RESERVED_2587>": 2592,
    "<RESERVED_2588>": 2593,
    "<RESERVED_2589>": 2594,
    "<RESERVED_2590>": 2595,
    "<RESERVED_2591>": 2596,
    "<RESERVED_2592>": 2597,
    "<RESERVED_2593>": 2598,
    "<RESERVED_2594>": 2599,
    "<RESERVED_2595>": 2600,
    "<RESERVED_2596>": 2601,
    "<RESERVED_2597>": 2602,
    "<RESERVED_2598>": 2603,
    "<RESERVED_2599>": 2604,
    "<RESERVED_2600>": 2605,
    "<RESERVED_2601>": 2606,
    "<RESERVED_2602>": 2607,
    "<RESERVED_2603>": 2608,
    "<RESERVED_2604>": 2609,
    "<RESERVED_2605>": 2610,
    "<RESERVED_2606>": 2611,
    "<RESERVED_2607>": 2612,
    "<RESERVED_2608>": 2613,
    "<RESERVED_2609>": 2614,
    "<RESERVED_2610>": 2615,
    "<RESERVED_2611>": 2616,
    "<RESERVED_2612>": 2617,
    "<RESERVED_2613>": 2618,
    "<RESERVED_2614>": 2619,
    "<RESERVED_2615>": 2620,
    "<RESERVED_2616>": 2621,
    "<RESERVED_2617>": 2622,
    "<RESERVED_2618>": 2623,
    "<RESERVED_2619>": 2624,
    "<RESERVED_2620>": 2625,
    "<RESERVED_2621>": 2626,
    "<RESERVED_2622>": 2627,
    "<RESERVED_2623>": 2628,
    "<RESERVED_2624>": 2629,
    "<RESERVED_2625>": 2630,
    "<RESERVED_2626>": 2631,
    "<RESERVED_2627>": 2632,
    "<RESERVED_2628>": 2633,
    "<RESERVED_2629>": 2634,
    "<RESERVED_2630>": 2635,
    "<RESERVED_2631>": 2636,
    "<RESERVED_2632>": 2637,
    "<RESERVED_2633>": 2638,
    "<RESERVED_2634>": 2639,
    "<RESERVED_2635>": 2640,
    "<RESERVED_2636>": 2641,
    "<RESERVED_2637>": 2642,
    "<RESERVED_2638>": 2643,
    "<RESERVED_2639>": 2644,
    "<RESERVED_2640>": 2645,
    "<RESERVED_2641>": 2646,
    "<RESERVED_2642>": 2647,
    "<RESERVED_2643>": 2648,
    "<RESERVED_2644>": 2649,
    "<RESERVED_2645>": 2650,
    "<RESERVED_2646>": 2651,
    "<RESERVED_2647>": 2652,
    "<RESERVED_2648>": 2653,
    "<RESERVED_2649>": 2654,
    "<RESERVED_2650>": 2655,
    "<RESERVED_2651>": 2656,
    "<RESERVED_2652>": 2657,
    "<RESERVED_2653>": 2658,
    "<RESERVED_2654>": 2659,
    "<RESERVED_2655>": 2660,
    "<RESERVED_2656>": 2661,
    "<RESERVED_2657>": 2662,
    "<RESERVED_2658>": 2663,
    "<RESERVED_2659>": 2664,
    "<RESERVED_2660>": 2665,
    "<RESERVED_2661>": 2666,
    "<RESERVED_2662>": 2667,
    "<RESERVED_2663>": 2668,
    "<RESERVED_2664>": 2669,
    "<RESERVED_2665>": 2670,
    "<RESERVED_2666>": 2671,
    "<RESERVED_2667>": 2672,
    "<RESERVED_2668>": 2673,
    "<RESERVED_2669>": 2674,
    "<RESERVED_2670>": 2675,
    "<RESERVED_2671>": 2676,
    "<RESERVED_2672>": 2677,
    "<RESERVED_2673>": 2678,
    "<RESERVED_2674>": 2679,
    "<RESERVED_2675>": 2680,
    "<RESERVED_2676>": 2681,
    "<RESERVED_2677>": 2682,
    "<RESERVED_2678>": 2683,
    "<RESERVED_2679>": 2684,
    "<RESERVED_2680>": 2685,
    "<RESERVED_2681>": 2686,
    "<RESERVED_2682>": 2687,
    "<RESERVED_2683>": 2688,
    "<RESERVED_2684>": 2689,
    "<RESERVED_2685>": 2690,
    "<RESERVED_2686>": 2691,
    "<RESERVED_2687>": 2692,
    "<RESERVED_2688>": 2693,
    "<RESERVED_2689>": 2694,
    "<RESERVED_2690>": 2695,
    "<RESERVED_2691>": 2696,
    "<RESERVED_2692>": 2697,
    "<RESERVED_2693>": 2698,
    "<RESERVED_2694>": 2699,
    "<RESERVED_2695>": 2700,
    "<RESERVED_2696>": 2701,
    "<RESERVED_2697>": 2702,
    "<RESERVED_2698>": 2703,
    "<RESERVED_2699>": 2704,
    "<RESERVED_2700>": 2705,
    "<RESERVED_2701>": 2706,
    "<RESERVED_2702>": 2707,
    "<RESERVED_2703>": 2708,
    "<RESERVED_2704>": 2709,
    "<RESERVED_2705>": 2710,
    "<RESERVED_2706>": 2711,
    "<RESERVED_2707>": 2712,
    "<RESERVED_2708>": 2713,
    "<RESERVED_2709>": 2714,
    "<RESERVED_2710>": 2715,
    "<RESERVED_2711>": 2716,
    "<RESERVED_2712>": 2717,
    "<RESERVED_2713>": 2718,
    "<RESERVED_2714>": 2719,
    "<RESERVED_2715>": 2720,
    "<RESERVED_2716>": 2721,
    "<RESERVED_2717>": 2722,
    "<RESERVED_2718>": 2723,
    "<RESERVED_2719>": 2724,
    "<RESERVED_2720>": 2725,
    "<RESERVED_2721>": 2726,
    "<RESERVED_2722>": 2727,
    "<RESERVED_2723>": 2728,
    "<RESERVED_2724>": 2729,
    "<RESERVED_2725>": 2730,
    "<RESERVED_2726>": 2731,
    "<RESERVED_2727>": 2732,
    "<RESERVED_2728>": 2733,
    "<RESERVED_2729>": 2734,
    "<RESERVED_2730>": 2735,
    "<RESERVED_2731>": 2736,
    "<RESERVED_2732>": 2737,
    "<RESERVED_2733>": 2738,
    "<RESERVED_2734>": 2739,
    "<RESERVED_2735>": 2740,
    "<RESERVED_2736>": 2741,
    "<RESERVED_2737>": 2742,
    "<RESERVED_2738>": 2743,
    "<RESERVED_2739>": 2744,
    "<RESERVED_2740>": 2745,
    "<RESERVED_2741>": 2746,
    "<RESERVED_2742>": 2747,
    "<RESERVED_2743>": 2748,
    "<RESERVED_2744>": 2749,
    "<RESERVED_2745>": 2750,
    "<RESERVED_2746>": 2751,
    "<RESERVED_2747>": 2752,
    "<RESERVED_2748>": 2753,
    "<RESERVED_2749>": 2754,
    "<RESERVED_2750>": 2755,
    "<RESERVED_2751>": 2756,
    "<RESERVED_2752>": 2757,
    "<RESERVED_2753>": 2758,
    "<RESERVED_2754>": 2759,
    "<RESERVED_2755>": 2760,
    "<RESERVED_2756>": 2761,
    "<RESERVED_2757>": 2762,
    "<RESERVED_2758>": 2763,
    "<RESERVED_2759>": 2764,
    "<RESERVED_2760>": 2765,
    "<RESERVED_2761>": 2766,
    "<RESERVED_2762>": 2767,
    "<RESERVED_2763>": 2768,
    "<RESERVED_2764>": 2769,
    "<RESERVED_2765>": 2770,
    "<RESERVED_2766>": 2771,
    "<RESERVED_2767>": 2772,
    "<RESERVED_2768>": 2773,
    "<RESERVED_2769>": 2774,
    "<RESERVED_2770>": 2775,
    "<RESERVED_2771>": 2776,
    "<RESERVED_2772>": 2777,
    "<RESERVED_2773>": 2778,
    "<RESERVED_2774>": 2779,
    "<RESERVED_2775>": 2780,
    "<RESERVED_2776>": 2781,
    "<RESERVED_2777>": 2782,
    "<RESERVED_2778>": 2783,
    "<RESERVED_2779>": 2784,
    "<RESERVED_2780>": 2785,
    "<RESERVED_2781>": 2786,
    "<RESERVED_2782>": 2787,
    "<RESERVED_2783>": 2788,
    "<RESERVED_2784>": 2789,
    "<RESERVED_2785>": 2790,
    "<RESERVED_2786>": 2791,
    "<RESERVED_2787>": 2792,
    "<RESERVED_2788>": 2793,
    "<RESERVED_2789>": 2794,
    "<RESERVED_2790>": 2795,
    "<RESERVED_2791>": 2796,
    "<RESERVED_2792>": 2797,
    "<RESERVED_2793>": 2798,
    "<RESERVED_2794>": 2799,
    "<RESERVED_2795>": 2800,
    "<RESERVED_2796>": 2801,
    "<RESERVED_2797>": 2802,
    "<RESERVED_2798>": 2803,
    "<RESERVED_2799>": 2804,
    "<RESERVED_2800>": 2805,
    "<RESERVED_2801>": 2806,
    "<RESERVED_2802>": 2807,
    "<RESERVED_2803>": 2808,
    "<RESERVED_2804>": 2809,
    "<RESERVED_2805>": 2810,
    "<RESERVED_2806>": 2811,
    "<RESERVED_2807>": 2812,
    "<RESERVED_2808>": 2813,
    "<RESERVED_2809>": 2814,
    "<RESERVED_2810>": 2815,
    "<RESERVED_2811>": 2816,
    "<RESERVED_2812>": 2817,
    "<RESERVED_2813>": 2818,
    "<RESERVED_2814>": 2819,
    "<RESERVED_2815>": 2820,
    "<RESERVED_2816>": 2821,
    "<RESERVED_2817>": 2822,
    "<RESERVED_2818>": 2823,
    "<RESERVED_2819>": 2824,
    "<RESERVED_2820>": 2825,
    "<RESERVED_2821>": 2826,
    "<RESERVED_2822>": 2827,
    "<RESERVED_2823>": 2828,
    "<RESERVED_2824>": 2829,
    "<RESERVED_2825>": 2830,
    "<RESERVED_2826>": 2831,
    "<RESERVED_2827>": 2832,
    "<RESERVED_2828>": 2833,
    "<RESERVED_2829>": 2834,
    "<RESERVED_2830>": 2835,
    "<RESERVED_2831>": 2836,
    "<RESERVED_2832>": 2837,
    "<RESERVED_2833>": 2838,
    "<RESERVED_2834>": 2839,
    "<RESERVED_2835>": 2840,
    "<RESERVED_2836>": 2841,
    "<RESERVED_2837>": 2842,
    "<RESERVED_2838>": 2843,
    "<RESERVED_2839>": 2844,
    "<RESERVED_2840>": 2845,
    "<RESERVED_2841>": 2846,
    "<RESERVED_2842>": 2847,
    "<RESERVED_2843>": 2848,
    "<RESERVED_2844>": 2849,
    "<RESERVED_2845>": 2850,
    "<RESERVED_2846>": 2851,
    "<RESERVED_2847>": 2852,
    "<RESERVED_2848>": 2853,
    "<RESERVED_2849>": 2854,
    "<RESERVED_2850>": 2855,
    "<RESERVED_2851>": 2856,
    "<RESERVED_2852>": 2857,
    "<RESERVED_2853>": 2858,
    "<RESERVED_2854>": 2859,
    "<RESERVED_2855>": 2860,
    "<RESERVED_2856>": 2861,
    "<RESERVED_2857>": 2862,
    "<RESERVED_2858>": 2863,
    "<RESERVED_2859>": 2864,
    "<RESERVED_2860>": 2865,
    "<RESERVED_2861>": 2866,
    "<RESERVED_2862>": 2867,
    "<RESERVED_2863>": 2868,
    "<RESERVED_2864>": 2869,
    "<RESERVED_2865>": 2870,
    "<RESERVED_2866>": 2871,
    "<RESERVED_2867>": 2872,
    "<RESERVED_2868>": 2873,
    "<RESERVED_2869>": 2874,
    "<RESERVED_2870>": 2875,
    "<RESERVED_2871>": 2876,
    "<RESERVED_2872>": 2877,
    "<RESERVED_2873>": 2878,
    "<RESERVED_2874>": 2879,
    "<RESERVED_2875>": 2880,
    "<RESERVED_2876>": 2881,
    "<RESERVED_2877>": 2882,
    "<RESERVED_2878>": 2883,
    "<RESERVED_2879>": 2884,
    "<RESERVED_2880>": 2885,
    "<RESERVED_2881>": 2886,
    "<RESERVED_2882>": 2887,
    "<RESERVED_2883>": 2888,
    "<RESERVED_2884>": 2889,
    "<RESERVED_2885>": 2890,
    "<RESERVED_2886>": 2891,
    "<RESERVED_2887>": 2892,
    "<RESERVED_2888>": 2893,
    "<RESERVED_2889>": 2894,
    "<RESERVED_2890>": 2895,
    "<RESERVED_2891>": 2896,
    "<RESERVED_2892>": 2897,
    "<RESERVED_2893>": 2898,
    "<RESERVED_2894>": 2899,
    "<RESERVED_2895>": 2900,
    "<RESERVED_2896>": 2901,
    "<RESERVED_2897>": 2902,
    "<RESERVED_2898>": 2903,
    "<RESERVED_2899>": 2904,
    "<RESERVED_2900>": 2905,
    "<RESERVED_2901>": 2906,
    "<RESERVED_2902>": 2907,
    "<RESERVED_2903>": 2908,
    "<RESERVED_2904>": 2909,
    "<RESERVED_2905>": 2910,
    "<RESERVED_2906>": 2911,
    "<RESERVED_2907>": 2912,
    "<RESERVED_2908>": 2913,
    "<RESERVED_2909>": 2914,
    "<RESERVED_2910>": 2915,
    "<RESERVED_2911>": 2916,
    "<RESERVED_2912>": 2917,
    "<RESERVED_2913>": 2918,
    "<RESERVED_2914>": 2919,
    "<RESERVED_2915>": 2920,
    "<RESERVED_2916>": 2921,
    "<RESERVED_2917>": 2922,
    "<RESERVED_2918>": 2923,
    "<RESERVED_2919>": 2924,
    "<RESERVED_2920>": 2925,
    "<RESERVED_2921>": 2926,
    "<RESERVED_2922>": 2927,
    "<RESERVED_2923>": 2928,
    "<RESERVED_2924>": 2929,
    "<RESERVED_2925>": 2930,
    "<RESERVED_2926>": 2931,
    "<RESERVED_2927>": 2932,
    "<RESERVED_2928>": 2933,
    "<RESERVED_2929>": 2934,
    "<RESERVED_2930>": 2935,
    "<RESERVED_2931>": 2936,
    "<RESERVED_2932>": 2937,
    "<RESERVED_2933>": 2938,
    "<RESERVED_2934>": 2939,
    "<RESERVED_2935>": 2940,
    "<RESERVED_2936>": 2941,
    "<RESERVED_2937>": 2942,
    "<RESERVED_2938>": 2943,
    "<RESERVED_2939>": 2944,
    "<RESERVED_2940>": 2945,
    "<RESERVED_2941>": 2946,
    "<RESERVED_2942>": 2947,
    "<RESERVED_2943>": 2948,
    "<RESERVED_2944>": 2949,
    "<RESERVED_2945>": 2950,
    "<RESERVED_2946>": 2951,
    "<RESERVED_2947>": 2952,
    "<RESERVED_2948>": 2953,
    "<RESERVED_2949>": 2954,
    "<RESERVED_2950>": 2955,
    "<RESERVED_2951>": 2956,
    "<RESERVED_2952>": 2957,
    "<RESERVED_2953>": 2958,
    "<RESERVED_2954>": 2959,
    "<RESERVED_2955>": 2960,
    "<RESERVED_2956>": 2961,
    "<RESERVED_2957>": 2962,
    "<RESERVED_2958>": 2963,
    "<RESERVED_2959>": 2964,
    "<RESERVED_2960>": 2965,
    "<RESERVED_2961>": 2966,
    "<RESERVED_2962>": 2967,
    "<RESERVED_2963>": 2968,
    "<RESERVED_2964>": 2969,
    "<RESERVED_2965>": 2970,
    "<RESERVED_2966>": 2971,
    "<RESERVED_2967>": 2972,
    "<RESERVED_2968>": 2973,
    "<RESERVED_2969>": 2974,
    "<RESERVED_2970>": 2975,
    "<RESERVED_2971>": 2976,
    "<RESERVED_2972>": 2977,
    "<RESERVED_2973>": 2978,
    "<RESERVED_2974>": 2979,
    "<RESERVED_2975>": 2980,
    "<RESERVED_2976>": 2981,
    "<RESERVED_2977>": 2982,
    "<RESERVED_2978>": 2983,
    "<RESERVED_2979>": 2984,
    "<RESERVED_2980>": 2985,
    "<RESERVED_2981>": 2986,
    "<RESERVED_2982>": 2987,
    "<RESERVED_2983>": 2988,
    "<RESERVED_2984>": 2989,
    "<RESERVED_2985>": 2990,
    "<RESERVED_2986>": 2991,
    "<RESERVED_2987>": 2992,
    "<RESERVED_2988>": 2993,
    "<RESERVED_2989>": 2994,
    "<RESERVED_2990>": 2995,
    "<RESERVED_2991>": 2996,
    "<RESERVED_2992>": 2997,
    "<RESERVED_2993>": 2998,
    "<RESERVED_2994>": 2999,
    "<RESERVED_2995>": 3000,
    "<RESERVED_2996>": 3001,
    "<RESERVED_2997>": 3002,
    "<RESERVED_2998>": 3003,
    "<RESERVED_2999>": 3004,
    "<RESERVED_3000>": 3005,
    "<RESERVED_3001>": 3006,
    "<RESERVED_3002>": 3007,
    "<RESERVED_3003>": 3008,
    "<RESERVED_3004>": 3009,
    "<RESERVED_3005>": 3010,
    "<RESERVED_3006>": 3011,
    "<RESERVED_3007>": 3012,
    "<RESERVED_3008>": 3013,
    "<RESERVED_3009>": 3014,
    "<RESERVED_3010>": 3015,
    "<RESERVED_3011>": 3016,
    "<RESERVED_3012>": 3017,
    "<RESERVED_3013>": 3018,
    "<RESERVED_3014>": 3019,
    "<RESERVED_3015>": 3020,
    "<RESERVED_3016>": 3021,
    "<RESERVED_3017>": 3022,
    "<RESERVED_3018>": 3023,
    "<RESERVED_3019>": 3024,
    "<RESERVED_3020>": 3025,
    "<RESERVED_3021>": 3026,
    "<RESERVED_3022>": 3027,
    "<RESERVED_3023>": 3028,
    "<RESERVED_3024>": 3029,
    "<RESERVED_3025>": 3030,
    "<RESERVED_3026>": 3031,
    "<RESERVED_3027>": 3032,
    "<RESERVED_3028>": 3033,
    "<RESERVED_3029>": 3034,
    "<RESERVED_3030>": 3035,
    "<RESERVED_3031>": 3036,
    "<RESERVED_3032>": 3037,
    "<RESERVED_3033>": 3038,
    "<RESERVED_3034>": 3039,
    "<RESERVED_3035>": 3040,
    "<RESERVED_3036>": 3041,
    "<RESERVED_3037>": 3042,
    "<RESERVED_3038>": 3043,
    "<RESERVED_3039>": 3044,
    "<RESERVED_3040>": 3045,
    "<RESERVED_3041>": 3046,
    "<RESERVED_3042>": 3047,
    "<RESERVED_3043>": 3048,
    "<RESERVED_3044>": 3049,
    "<RESERVED_3045>": 3050,
    "<RESERVED_3046>": 3051,
    "<RESERVED_3047>": 3052,
    "<RESERVED_3048>": 3053,
    "<RESERVED_3049>": 3054,
    "<RESERVED_3050>": 3055,
    "<RESERVED_3051>": 3056,
    "<RESERVED_3052>": 3057,
    "<RESERVED_3053>": 3058,
    "<RESERVED_3054>": 3059,
    "<RESERVED_3055>": 3060,
    "<RESERVED_3056>": 3061,
    "<RESERVED_3057>": 3062,
    "<RESERVED_3058>": 3063,
    "<RESERVED_3059>": 3064,
    "<RESERVED_3060>": 3065,
    "<RESERVED_3061>": 3066,
    "<RESERVED_3062>": 3067,
    "<RESERVED_3063>": 3068,
    "<RESERVED_3064>": 3069,
    "<RESERVED_3065>": 3070,
    "<RESERVED_3066>": 3071,
    "<RESERVED_3067>": 3072,
    "<RESERVED_3068>": 3073,
    "<RESERVED_3069>": 3074,
    "<RESERVED_3070>": 3075,
    "<RESERVED_3071>": 3076,
    "<RESERVED_3072>": 3077,
    "<RESERVED_3073>": 3078,
    "<RESERVED_3074>": 3079,
    "<RESERVED_3075>": 3080,
    "<RESERVED_3076>": 3081,
    "<RESERVED_3077>": 3082,
    "<RESERVED_3078>": 3083,
    "<RESERVED_3079>": 3084,
    "<RESERVED_3080>": 3085,
    "<RESERVED_3081>": 3086,
    "<RESERVED_3082>": 3087,
    "<RESERVED_3083>": 3088,
    "<RESERVED_3084>": 3089,
    "<RESERVED_3085>": 3090,
    "<RESERVED_3086>": 3091,
    "<RESERVED_3087>": 3092,
    "<RESERVED_3088>": 3093,
    "<RESERVED_3089>": 3094,
    "<RESERVED_3090>": 3095,
    "<RESERVED_3091>": 3096,
    "<RESERVED_3092>": 3097,
    "<RESERVED_3093>": 3098,
    "<RESERVED_3094>": 3099,
    "<RESERVED_3095>": 3100,
    "<RESERVED_3096>": 3101,
    "<RESERVED_3097>": 3102,
    "<RESERVED_3098>": 3103,
    "<RESERVED_3099>": 3104,
    "<RESERVED_3100>": 3105,
    "<RESERVED_3101>": 3106,
    "<RESERVED_3102>": 3107,
    "<RESERVED_3103>": 3108,
    "<RESERVED_3104>": 3109,
    "<RESERVED_3105>": 3110,
    "<RESERVED_3106>": 3111,
    "<RESERVED_3107>": 3112,
    "<RESERVED_3108>": 3113,
    "<RESERVED_3109>": 3114,
    "<RESERVED_3110>": 3115,
    "<RESERVED_3111>": 3116,
    "<RESERVED_3112>": 3117,
    "<RESERVED_3113>": 3118,
    "<RESERVED_3114>": 3119,
    "<RESERVED_3115>": 3120,
    "<RESERVED_3116>": 3121,
    "<RESERVED_3117>": 3122,
    "<RESERVED_3118>": 3123,
    "<RESERVED_3119>": 3124,
    "<RESERVED_3120>": 3125,
    "<RESERVED_3121>": 3126,
    "<RESERVED_3122>": 3127,
    "<RESERVED_3123>": 3128,
    "<RESERVED_3124>": 3129,
    "<RESERVED_3125>": 3130,
    "<RESERVED_3126>": 3131,
    "<RESERVED_3127>": 3132,
    "<RESERVED_3128>": 3133,
    "<RESERVED_3129>": 3134,
    "<RESERVED_3130>": 3135,
    "<RESERVED_3131>": 3136,
    "<RESERVED_3132>": 3137,
    "<RESERVED_3133>": 3138,
    "<RESERVED_3134>": 3139,
    "<RESERVED_3135>": 3140,
    "<RESERVED_3136>": 3141,
    "<RESERVED_3137>": 3142,
    "<RESERVED_3138>": 3143,
    "<RESERVED_3139>": 3144,
    "<RESERVED_3140>": 3145,
    "<RESERVED_3141>": 3146,
    "<RESERVED_3142>": 3147,
    "<RESERVED_3143>": 3148,
    "<RESERVED_3144>": 3149,
    "<RESERVED_3145>": 3150,
    "<RESERVED_3146>": 3151,
    "<RESERVED_3147>": 3152,
    "<RESERVED_3148>": 3153,
    "<RESERVED_3149>": 3154,
    "<RESERVED_3150>": 3155,
    "<RESERVED_3151>": 3156,
    "<RESERVED_3152>": 3157,
    "<RESERVED_3153>": 3158,
    "<RESERVED_3154>": 3159,
    "<RESERVED_3155>": 3160,
    "<RESERVED_3156>": 3161,
    "<RESERVED_3157>": 3162,
    "<RESERVED_3158>": 3163,
    "<RESERVED_3159>": 3164,
    "<RESERVED_3160>": 3165,
    "<RESERVED_3161>": 3166,
    "<RESERVED_3162>": 3167,
    "<RESERVED_3163>": 3168,
    "<RESERVED_3164>": 3169,
    "<RESERVED_3165>": 3170,
    "<RESERVED_3166>": 3171,
    "<RESERVED_3167>": 3172,
    "<RESERVED_3168>": 3173,
    "<RESERVED_3169>": 3174,
    "<RESERVED_3170>": 3175,
    "<RESERVED_3171>": 3176,
    "<RESERVED_3172>": 3177,
    "<RESERVED_3173>": 3178,
    "<RESERVED_3174>": 3179,
    "<RESERVED_3175>": 3180,
    "<RESERVED_3176>": 3181,
    "<RESERVED_3177>": 3182,
    "<RESERVED_3178>": 3183,
    "<RESERVED_3179>": 3184,
    "<RESERVED_3180>": 3185,
    "<RESERVED_3181>": 3186,
    "<RESERVED_3182>": 3187,
    "<RESERVED_3183>": 3188,
    "<RESERVED_3184>": 3189,
    "<RESERVED_3185>": 3190,
    "<RESERVED_3186>": 3191,
    "<RESERVED_3187>": 3192,
    "<RESERVED_3188>": 3193,
    "<RESERVED_3189>": 3194,
    "<RESERVED_3190>": 3195,
    "<RESERVED_3191>": 3196,
    "<RESERVED_3192>": 3197,
    "<RESERVED_3193>": 3198,
    "<RESERVED_3194>": 3199,
    "<RESERVED_3195>": 3200,
    "<RESERVED_3196>": 3201,
    "<RESERVED_3197>": 3202,
    "<RESERVED_3198>": 3203,
    "<RESERVED_3199>": 3204,
    "<RESERVED_3200>": 3205,
    "<RESERVED_3201>": 3206,
    "<RESERVED_3202>": 3207,
    "<RESERVED_3203>": 3208,
    "<RESERVED_3204>": 3209,
    "<RESERVED_3205>": 3210,
    "<RESERVED_3206>": 3211,
    "<RESERVED_3207>": 3212,
    "<RESERVED_3208>": 3213,
    "<RESERVED_3209>": 3214,
    "<RESERVED_3210>": 3215,
    "<RESERVED_3211>": 3216,
    "<RESERVED_3212>": 3217,
    "<RESERVED_3213>": 3218,
    "<RESERVED_3214>": 3219,
    "<RESERVED_3215>": 3220,
    "<RESERVED_3216>": 3221,
    "<RESERVED_3217>": 3222,
    "<RESERVED_3218>": 3223,
    "<RESERVED_3219>": 3224,
    "<RESERVED_3220>": 3225,
    "<RESERVED_3221>": 3226,
    "<RESERVED_3222>": 3227,
    "<RESERVED_3223>": 3228,
    "<RESERVED_3224>": 3229,
    "<RESERVED_3225>": 3230,
    "<RESERVED_3226>": 3231,
    "<RESERVED_3227>": 3232,
    "<RESERVED_3228>": 3233,
    "<RESERVED_3229>": 3234,
    "<RESERVED_3230>": 3235,
    "<RESERVED_3231>": 3236,
    "<RESERVED_3232>": 3237,
    "<RESERVED_3233>": 3238,
    "<RESERVED_3234>": 3239,
    "<RESERVED_3235>": 3240,
    "<RESERVED_3236>": 3241,
    "<RESERVED_3237>": 3242,
    "<RESERVED_3238>": 3243,
    "<RESERVED_3239>": 3244,
    "<RESERVED_3240>": 3245,
    "<RESERVED_3241>": 3246,
    "<RESERVED_3242>": 3247,
    "<RESERVED_3243>": 3248,
    "<RESERVED_3244>": 3249,
    "<RESERVED_3245>": 3250,
    "<RESERVED_3246>": 3251,
    "<RESERVED_3247>": 3252,
    "<RESERVED_3248>": 3253,
    "<RESERVED_3249>": 3254,
    "<RESERVED_3250>": 3255,
    "<RESERVED_3251>": 3256,
    "<RESERVED_3252>": 3257,
    "<RESERVED_3253>": 3258,
    "<RESERVED_3254>": 3259,
    "<RESERVED_3255>": 3260,
    "<RESERVED_3256>": 3261,
    "<RESERVED_3257>": 3262,
    "<RESERVED_3258>": 3263,
    "<RESERVED_3259>": 3264,
    "<RESERVED_3260>": 3265,
    "<RESERVED_3261>": 3266,
    "<RESERVED_3262>": 3267,
    "<RESERVED_3263>": 3268,
    "<RESERVED_3264>": 3269,
    "<RESERVED_3265>": 3270,
    "<RESERVED_3266>": 3271,
    "<RESERVED_3267>": 3272,
    "<RESERVED_3268>": 3273,
    "<RESERVED_3269>": 3274,
    "<RESERVED_3270>": 3275,
    "<RESERVED_3271>": 3276,
    "<RESERVED_3272>": 3277,
    "<RESERVED_3273>": 3278,
    "<RESERVED_3274>": 3279,
    "<RESERVED_3275>": 3280,
    "<RESERVED_3276>": 3281,
    "<RESERVED_3277>": 3282,
    "<RESERVED_3278>": 3283,
    "<RESERVED_3279>": 3284,
    "<RESERVED_3280>": 3285,
    "<RESERVED_3281>": 3286,
    "<RESERVED_3282>": 3287,
    "<RESERVED_3283>": 3288,
    "<RESERVED_3284>": 3289,
    "<RESERVED_3285>": 3290,
    "<RESERVED_3286>": 3291,
    "<RESERVED_3287>": 3292,
    "<RESERVED_3288>": 3293,
    "<RESERVED_3289>": 3294,
    "<RESERVED_3290>": 3295,
    "<RESERVED_3291>": 3296,
    "<RESERVED_3292>": 3297,
    "<RESERVED_3293>": 3298,
    "<RESERVED_3294>": 3299,
    "<RESERVED_3295>": 3300,
    "<RESERVED_3296>": 3301,
    "<RESERVED_3297>": 3302,
    "<RESERVED_3298>": 3303,
    "<RESERVED_3299>": 3304,
    "<RESERVED_3300>": 3305,
    "<RESERVED_3301>": 3306,
    "<RESERVED_3302>": 3307,
    "<RESERVED_3303>": 3308,
    "<RESERVED_3304>": 3309,
    "<RESERVED_3305>": 3310,
    "<RESERVED_3306>": 3311,
    "<RESERVED_3307>": 3312,
    "<RESERVED_3308>": 3313,
    "<RESERVED_3309>": 3314,
    "<RESERVED_3310>": 3315,
    "<RESERVED_3311>": 3316,
    "<RESERVED_3312>": 3317,
    "<RESERVED_3313>": 3318,
    "<RESERVED_3314>": 3319,
    "<RESERVED_3315>": 3320,
    "<RESERVED_3316>": 3321,
    "<RESERVED_3317>": 3322,
    "<RESERVED_3318>": 3323,
    "<RESERVED_3319>": 3324,
    "<RESERVED_3320>": 3325,
    "<RESERVED_3321>": 3326,
    "<RESERVED_3322>": 3327,
    "<RESERVED_3323>": 3328,
    "<RESERVED_3324>": 3329,
    "<RESERVED_3325>": 3330,
    "<RESERVED_3326>": 3331,
    "<RESERVED_3327>": 3332,
    "<RESERVED_3328>": 3333,
    "<RESERVED_3329>": 3334,
    "<RESERVED_3330>": 3335,
    "<RESERVED_3331>": 3336,
    "<RESERVED_3332>": 3337,
    "<RESERVED_3333>": 3338,
    "<RESERVED_3334>": 3339,
    "<RESERVED_3335>": 3340,
    "<RESERVED_3336>": 3341,
    "<RESERVED_3337>": 3342,
    "<RESERVED_3338>": 3343,
    "<RESERVED_3339>": 3344,
    "<RESERVED_3340>": 3345,
    "<RESERVED_3341>": 3346,
    "<RESERVED_3342>": 3347,
    "<RESERVED_3343>": 3348,
    "<RESERVED_3344>": 3349,
    "<RESERVED_3345>": 3350,
    "<RESERVED_3346>": 3351,
    "<RESERVED_3347>": 3352,
    "<RESERVED_3348>": 3353,
    "<RESERVED_3349>": 3354,
    "<RESERVED_3350>": 3355,
    "<RESERVED_3351>": 3356,
    "<RESERVED_3352>": 3357,
    "<RESERVED_3353>": 3358,
    "<RESERVED_3354>": 3359,
    "<RESERVED_3355>": 3360,
    "<RESERVED_3356>": 3361,
    "<RESERVED_3357>": 3362,
    "<RESERVED_3358>": 3363,
    "<RESERVED_3359>": 3364,
    "<RESERVED_3360>": 3365,
    "<RESERVED_3361>": 3366,
    "<RESERVED_3362>": 3367,
    "<RESERVED_3363>": 3368,
    "<RESERVED_3364>": 3369,
    "<RESERVED_3365>": 3370,
    "<RESERVED_3366>": 3371,
    "<RESERVED_3367>": 3372,
    "<RESERVED_3368>": 3373,
    "<RESERVED_3369>": 3374,
    "<RESERVED_3370>": 3375,
    "<RESERVED_3371>": 3376,
    "<RESERVED_3372>": 3377,
    "<RESERVED_3373>": 3378,
    "<RESERVED_3374>": 3379,
    "<RESERVED_3375>": 3380,
    "<RESERVED_3376>": 3381,
    "<RESERVED_3377>": 3382,
    "<RESERVED_3378>": 3383,
    "<RESERVED_3379>": 3384,
    "<RESERVED_3380>": 3385,
    "<RESERVED_3381>": 3386,
    "<RESERVED_3382>": 3387,
    "<RESERVED_3383>": 3388,
    "<RESERVED_3384>": 3389,
    "<RESERVED_3385>": 3390,
    "<RESERVED_3386>": 3391,
    "<RESERVED_3387>": 3392,
    "<RESERVED_3388>": 3393,
    "<RESERVED_3389>": 3394,
    "<RESERVED_3390>": 3395,
    "<RESERVED_3391>": 3396,
    "<RESERVED_3392>": 3397,
    "<RESERVED_3393>": 3398,
    "<RESERVED_3394>": 3399,
    "<RESERVED_3395>": 3400,
    "<RESERVED_3396>": 3401,
    "<RESERVED_3397>": 3402,
    "<RESERVED_3398>": 3403,
    "<RESERVED_3399>": 3404,
    "<RESERVED_3400>": 3405,
    "<RESERVED_3401>": 3406,
    "<RESERVED_3402>": 3407,
    "<RESERVED_3403>": 3408,
    "<RESERVED_3404>": 3409,
    "<RESERVED_3405>": 3410,
    "<RESERVED_3406>": 3411,
    "<RESERVED_3407>": 3412,
    "<RESERVED_3408>": 3413,
    "<RESERVED_3409>": 3414,
    "<RESERVED_3410>": 3415,
    "<RESERVED_3411>": 3416,
    "<RESERVED_3412>": 3417,
    "<RESERVED_3413>": 3418,
    "<RESERVED_3414>": 3419,
    "<RESERVED_3415>": 3420,
    "<RESERVED_3416>": 3421,
    "<RESERVED_3417>": 3422,
    "<RESERVED_3418>": 3423,
    "<RESERVED_3419>": 3424,
    "<RESERVED_3420>": 3425,
    "<RESERVED_3421>": 3426,
    "<RESERVED_3422>": 3427,
    "<RESERVED_3423>": 3428,
    "<RESERVED_3424>": 3429,
    "<RESERVED_3425>": 3430,
    "<RESERVED_3426>": 3431,
    "<RESERVED_3427>": 3432,
    "<RESERVED_3428>": 3433,
    "<RESERVED_3429>": 3434,
    "<RESERVED_3430>": 3435,
    "<RESERVED_3431>": 3436,
    "<RESERVED_3432>": 3437,
    "<RESERVED_3433>": 3438,
    "<RESERVED_3434>": 3439,
    "<RESERVED_3435>": 3440,
    "<RESERVED_3436>": 3441,
    "<RESERVED_3437>": 3442,
    "<RESERVED_3438>": 3443,
    "<RESERVED_3439>": 3444,
    "<RESERVED_3440>": 3445,
    "<RESERVED_3441>": 3446,
    "<RESERVED_3442>": 3447,
    "<RESERVED_3443>": 3448,
    "<RESERVED_3444>": 3449,
    "<RESERVED_3445>": 3450,
    "<RESERVED_3446>": 3451,
    "<RESERVED_3447>": 3452,
    "<RESERVED_3448>": 3453,
    "<RESERVED_3449>": 3454,
    "<RESERVED_3450>": 3455,
    "<RESERVED_3451>": 3456,
    "<RESERVED_3452>": 3457,
    "<RESERVED_3453>": 3458,
    "<RESERVED_3454>": 3459,
    "<RESERVED_3455>": 3460,
    "<RESERVED_3456>": 3461,
    "<RESERVED_3457>": 3462,
    "<RESERVED_3458>": 3463,
    "<RESERVED_3459>": 3464,
    "<RESERVED_3460>": 3465,
    "<RESERVED_3461>": 3466,
    "<RESERVED_3462>": 3467,
    "<RESERVED_3463>": 3468,
    "<RESERVED_3464>": 3469,
    "<RESERVED_3465>": 3470,
    "<RESERVED_3466>": 3471,
    "<RESERVED_3467>": 3472,
    "<RESERVED_3468>": 3473,
    "<RESERVED_3469>": 3474,
    "<RESERVED_3470>": 3475,
    "<RESERVED_3471>": 3476,
    "<RESERVED_3472>": 3477,
    "<RESERVED_3473>": 3478,
    "<RESERVED_3474>": 3479,
    "<RESERVED_3475>": 3480,
    "<RESERVED_3476>": 3481,
    "<RESERVED_3477>": 3482,
    "<RESERVED_3478>": 3483,
    "<RESERVED_3479>": 3484,
    "<RESERVED_3480>": 3485,
    "<RESERVED_3481>": 3486,
    "<RESERVED_3482>": 3487,
    "<RESERVED_3483>": 3488,
    "<RESERVED_3484>": 3489,
    "<RESERVED_3485>": 3490,
    "<RESERVED_3486>": 3491,
    "<RESERVED_3487>": 3492,
    "<RESERVED_3488>": 3493,
    "<RESERVED_3489>": 3494,
    "<RESERVED_3490>": 3495,
    "<RESERVED_3491>": 3496,
    "<RESERVED_3492>": 3497,
    "<RESERVED_3493>": 3498,
    "<RESERVED_3494>": 3499,
    "<RESERVED_3495>": 3500,
    "<RESERVED_3496>": 3501,
    "<RESERVED_3497>": 3502,
    "<RESERVED_3498>": 3503,
    "<RESERVED_3499>": 3504,
    "<RESERVED_3500>": 3505,
    "<RESERVED_3501>": 3506,
    "<RESERVED_3502>": 3507,
    "<RESERVED_3503>": 3508,
    "<RESERVED_3504>": 3509,
    "<RESERVED_3505>": 3510,
    "<RESERVED_3506>": 3511,
    "<RESERVED_3507>": 3512,
    "<RESERVED_3508>": 3513,
    "<RESERVED_3509>": 3514,
    "<RESERVED_3510>": 3515,
    "<RESERVED_3511>": 3516,
    "<RESERVED_3512>": 3517,
    "<RESERVED_3513>": 3518,
    "<RESERVED_3514>": 3519,
    "<RESERVED_3515>": 3520,
    "<RESERVED_3516>": 3521,
    "<RESERVED_3517>": 3522,
    "<RESERVED_3518>": 3523,
    "<RESERVED_3519>": 3524,
    "<RESERVED_3520>": 3525,
    "<RESERVED_3521>": 3526,
    "<RESERVED_3522>": 3527,
    "<RESERVED_3523>": 3528,
    "<RESERVED_3524>": 3529,
    "<RESERVED_3525>": 3530,
    "<RESERVED_3526>": 3531,
    "<RESERVED_3527>": 3532,
    "<RESERVED_3528>": 3533,
    "<RESERVED_3529>": 3534,
    "<RESERVED_3530>": 3535,
    "<RESERVED_3531>": 3536,
    "<RESERVED_3532>": 3537,
    "<RESERVED_3533>": 3538,
    "<RESERVED_3534>": 3539,
    "<RESERVED_3535>": 3540,
    "<RESERVED_3536>": 3541,
    "<RESERVED_3537>": 3542,
    "<RESERVED_3538>": 3543,
    "<RESERVED_3539>": 3544,
    "<RESERVED_3540>": 3545,
    "<RESERVED_3541>": 3546,
    "<RESERVED_3542>": 3547,
    "<RESERVED_3543>": 3548,
    "<RESERVED_3544>": 3549,
    "<RESERVED_3545>": 3550,
    "<RESERVED_3546>": 3551,
    "<RESERVED_3547>": 3552,
    "<RESERVED_3548>": 3553,
    "<RESERVED_3549>": 3554,
    "<RESERVED_3550>": 3555,
    "<RESERVED_3551>": 3556,
    "<RESERVED_3552>": 3557,
    "<RESERVED_3553>": 3558,
    "<RESERVED_3554>": 3559,
    "<RESERVED_3555>": 3560,
    "<RESERVED_3556>": 3561,
    "<RESERVED_3557>": 3562,
    "<RESERVED_3558>": 3563,
    "<RESERVED_3559>": 3564,
    "<RESERVED_3560>": 3565,
    "<RESERVED_3561>": 3566,
    "<RESERVED_3562>": 3567,
    "<RESERVED_3563>": 3568,
    "<RESERVED_3564>": 3569,
    "<RESERVED_3565>": 3570,
    "<RESERVED_3566>": 3571,
    "<RESERVED_3567>": 3572,
    "<RESERVED_3568>": 3573,
    "<RESERVED_3569>": 3574,
    "<RESERVED_3570>": 3575,
    "<RESERVED_3571>": 3576,
    "<RESERVED_3572>": 3577,
    "<RESERVED_3573>": 3578,
    "<RESERVED_3574>": 3579,
    "<RESERVED_3575>": 3580,
    "<RESERVED_3576>": 3581,
    "<RESERVED_3577>": 3582,
    "<RESERVED_3578>": 3583,
    "<RESERVED_3579>": 3584,
    "<RESERVED_3580>": 3585,
    "<RESERVED_3581>": 3586,
    "<RESERVED_3582>": 3587,
    "<RESERVED_3583>": 3588,
    "<RESERVED_3584>": 3589,
    "<RESERVED_3585>": 3590,
    "<RESERVED_3586>": 3591,
    "<RESERVED_3587>": 3592,
    "<RESERVED_3588>": 3593,
    "<RESERVED_3589>": 3594,
    "<RESERVED_3590>": 3595,
    "<RESERVED_3591>": 3596,
    "<RESERVED_3592>": 3597,
    "<RESERVED_3593>": 3598,
    "<RESERVED_3594>": 3599,
    "<RESERVED_3595>": 3600,
    "<RESERVED_3596>": 3601,
    "<RESERVED_3597>": 3602,
    "<RESERVED_3598>": 3603,
    "<RESERVED_3599>": 3604,
    "<RESERVED_3600>": 3605,
    "<RESERVED_3601>": 3606,
    "<RESERVED_3602>": 3607,
    "<RESERVED_3603>": 3608,
    "<RESERVED_3604>": 3609,
    "<RESERVED_3605>": 3610,
    "<RESERVED_3606>": 3611,
    "<RESERVED_3607>": 3612,
    "<RESERVED_3608>": 3613,
    "<RESERVED_3609>": 3614,
    "<RESERVED_3610>": 3615,
    "<RESERVED_3611>": 3616,
    "<RESERVED_3612>": 3617,
    "<RESERVED_3613>": 3618,
    "<RESERVED_3614>": 3619,
    "<RESERVED_3615>": 3620,
    "<RESERVED_3616>": 3621,
    "<RESERVED_3617>": 3622,
    "<RESERVED_3618>": 3623,
    "<RESERVED_3619>": 3624,
    "<RESERVED_3620>": 3625,
    "<RESERVED_3621>": 3626,
    "<RESERVED_3622>": 3627,
    "<RESERVED_3623>": 3628,
    "<RESERVED_3624>": 3629,
    "<RESERVED_3625>": 3630,
    "<RESERVED_3626>": 3631,
    "<RESERVED_3627>": 3632,
    "<RESERVED_3628>": 3633,
    "<RESERVED_3629>": 3634,
    "<RESERVED_3630>": 3635,
    "<RESERVED_3631>": 3636,
    "<RESERVED_3632>": 3637,
    "<RESERVED_3633>": 3638,
    "<RESERVED_3634>": 3639,
    "<RESERVED_3635>": 3640,
    "<RESERVED_3636>": 3641,
    "<RESERVED_3637>": 3642,
    "<RESERVED_3638>": 3643,
    "<RESERVED_3639>": 3644,
    "<RESERVED_3640>": 3645,
    "<RESERVED_3641>": 3646,
    "<RESERVED_3642>": 3647,
    "<RESERVED_3643>": 3648,
    "<RESERVED_3644>": 3649,
    "<RESERVED_3645>": 3650,
    "<RESERVED_3646>": 3651,
    "<RESERVED_3647>": 3652,
    "<RESERVED_3648>": 3653,
    "<RESERVED_3649>": 3654,
    "<RESERVED_3650>": 3655,
    "<RESERVED_3651>": 3656,
    "<RESERVED_3652>": 3657,
    "<RESERVED_3653>": 3658,
    "<RESERVED_3654>": 3659,
    "<RESERVED_3655>": 3660,
    "<RESERVED_3656>": 3661,
    "<RESERVED_3657>": 3662,
    "<RESERVED_3658>": 3663,
    "<RESERVED_3659>": 3664,
    "<RESERVED_3660>": 3665,
    "<RESERVED_3661>": 3666,
    "<RESERVED_3662>": 3667,
    "<RESERVED_3663>": 3668,
    "<RESERVED_3664>": 3669,
    "<RESERVED_3665>": 3670,
    "<RESERVED_3666>": 3671,
    "<RESERVED_3667>": 3672,
    "<RESERVED_3668>": 3673,
    "<RESERVED_3669>": 3674,
    "<RESERVED_3670>": 3675,
    "<RESERVED_3671>": 3676,
    "<RESERVED_3672>": 3677,
    "<RESERVED_3673>": 3678,
    "<RESERVED_3674>": 3679,
    "<RESERVED_3675>": 3680,
    "<RESERVED_3676>": 3681,
    "<RESERVED_3677>": 3682,
    "<RESERVED_3678>": 3683,
    "<RESERVED_3679>": 3684,
    "<RESERVED_3680>": 3685,
    "<RESERVED_3681>": 3686,
    "<RESERVED_3682>": 3687,
    "<RESERVED_3683>": 3688,
    "<RESERVED_3684>": 3689,
    "<RESERVED_3685>": 3690,
    "<RESERVED_3686>": 3691,
    "<RESERVED_3687>": 3692,
    "<RESERVED_3688>": 3693,
    "<RESERVED_3689>": 3694,
    "<RESERVED_3690>": 3695,
    "<RESERVED_3691>": 3696,
    "<RESERVED_3692>": 3697,
    "<RESERVED_3693>": 3698,
    "<RESERVED_3694>": 3699,
    "<RESERVED_3695>": 3700,
    "<RESERVED_3696>": 3701,
    "<RESERVED_3697>": 3702,
    "<RESERVED_3698>": 3703,
    "<RESERVED_3699>": 3704,
    "<RESERVED_3700>": 3705,
    "<RESERVED_3701>": 3706,
    "<RESERVED_3702>": 3707,
    "<RESERVED_3703>": 3708,
    "<RESERVED_3704>": 3709,
    "<RESERVED_3705>": 3710,
    "<RESERVED_3706>": 3711,
    "<RESERVED_3707>": 3712,
    "<RESERVED_3708>": 3713,
    "<RESERVED_3709>": 3714,
    "<RESERVED_3710>": 3715,
    "<RESERVED_3711>": 3716,
    "<RESERVED_3712>": 3717,
    "<RESERVED_3713>": 3718,
    "<RESERVED_3714>": 3719,
    "<RESERVED_3715>": 3720,
    "<RESERVED_3716>": 3721,
    "<RESERVED_3717>": 3722,
    "<RESERVED_3718>": 3723,
    "<RESERVED_3719>": 3724,
    "<RESERVED_3720>": 3725,
    "<RESERVED_3721>": 3726,
    "<RESERVED_3722>": 3727,
    "<RESERVED_3723>": 3728,
    "<RESERVED_3724>": 3729,
    "<RESERVED_3725>": 3730,
    "<RESERVED_3726>": 3731,
    "<RESERVED_3727>": 3732,
    "<RESERVED_3728>": 3733,
    "<RESERVED_3729>": 3734,
    "<RESERVED_3730>": 3735,
    "<RESERVED_3731>": 3736,
    "<RESERVED_3732>": 3737,
    "<RESERVED_3733>": 3738,
    "<RESERVED_3734>": 3739,
    "<RESERVED_3735>": 3740,
    "<RESERVED_3736>": 3741,
    "<RESERVED_3737>": 3742,
    "<RESERVED_3738>": 3743,
    "<RESERVED_3739>": 3744,
    "<RESERVED_3740>": 3745,
    "<RESERVED_3741>": 3746,
    "<RESERVED_3742>": 3747,
    "<RESERVED_3743>": 3748,
    "<RESERVED_3744>": 3749,
    "<RESERVED_3745>": 3750,
    "<RESERVED_3746>": 3751,
    "<RESERVED_3747>": 3752,
    "<RESERVED_3748>": 3753,
    "<RESERVED_3749>": 3754,
    "<RESERVED_3750>": 3755,
    "<RESERVED_3751>": 3756,
    "<RESERVED_3752>": 3757,
    "<RESERVED_3753>": 3758,
    "<RESERVED_3754>": 3759,
    "<RESERVED_3755>": 3760,
    "<RESERVED_3756>": 3761,
    "<RESERVED_3757>": 3762,
    "<RESERVED_3758>": 3763,
    "<RESERVED_3759>": 3764,
    "<RESERVED_3760>": 3765,
    "<RESERVED_3761>": 3766,
    "<RESERVED_3762>": 3767,
    "<RESERVED_3763>": 3768,
    "<RESERVED_3764>": 3769,
    "<RESERVED_3765>": 3770,
    "<RESERVED_3766>": 3771,
    "<RESERVED_3767>": 3772,
    "<RESERVED_3768>": 3773,
    "<RESERVED_3769>": 3774,
    "<RESERVED_3770>": 3775,
    "<RESERVED_3771>": 3776,
    "<RESERVED_3772>": 3777,
    "<RESERVED_3773>": 3778,
    "<RESERVED_3774>": 3779,
    "<RESERVED_3775>": 3780,
    "<RESERVED_3776>": 3781,
    "<RESERVED_3777>": 3782,
    "<RESERVED_3778>": 3783,
    "<RESERVED_3779>": 3784,
    "<RESERVED_3780>": 3785,
    "<RESERVED_3781>": 3786,
    "<RESERVED_3782>": 3787,
    "<RESERVED_3783>": 3788,
    "<RESERVED_3784>": 3789,
    "<RESERVED_3785>": 3790,
    "<RESERVED_3786>": 3791,
    "<RESERVED_3787>": 3792,
    "<RESERVED_3788>": 3793,
    "<RESERVED_3789>": 3794,
    "<RESERVED_3790>": 3795,
    "<RESERVED_3791>": 3796,
    "<RESERVED_3792>": 3797,
    "<RESERVED_3793>": 3798,
    "<RESERVED_3794>": 3799,
    "<RESERVED_3795>": 3800,
    "<RESERVED_3796>": 3801,
    "<RESERVED_3797>": 3802,
    "<RESERVED_3798>": 3803,
    "<RESERVED_3799>": 3804,
    "<RESERVED_3800>": 3805,
    "<RESERVED_3801>": 3806,
    "<RESERVED_3802>": 3807,
    "<RESERVED_3803>": 3808,
    "<RESERVED_3804>": 3809,
    "<RESERVED_3805>": 3810,
    "<RESERVED_3806>": 3811,
    "<RESERVED_3807>": 3812,
    "<RESERVED_3808>": 3813,
    "<RESERVED_3809>": 3814,
    "<RESERVED_3810>": 3815,
    "<RESERVED_3811>": 3816,
    "<RESERVED_3812>": 3817,
    "<RESERVED_3813>": 3818,
    "<RESERVED_3814>": 3819,
    "<RESERVED_3815>": 3820,
    "<RESERVED_3816>": 3821,
    "<RESERVED_3817>": 3822,
    "<RESERVED_3818>": 3823,
    "<RESERVED_3819>": 3824,
    "<RESERVED_3820>": 3825,
    "<RESERVED_3821>": 3826,
    "<RESERVED_3822>": 3827,
    "<RESERVED_3823>": 3828,
    "<RESERVED_3824>": 3829,
    "<RESERVED_3825>": 3830,
    "<RESERVED_3826>": 3831,
    "<RESERVED_3827>": 3832,
    "<RESERVED_3828>": 3833,
    "<RESERVED_3829>": 3834,
    "<RESERVED_3830>": 3835,
    "<RESERVED_3831>": 3836,
    "<RESERVED_3832>": 3837,
    "<RESERVED_3833>": 3838,
    "<RESERVED_3834>": 3839,
    "<RESERVED_3835>": 3840,
    "<RESERVED_3836>": 3841,
    "<RESERVED_3837>": 3842,
    "<RESERVED_3838>": 3843,
    "<RESERVED_3839>": 3844,
    "<RESERVED_3840>": 3845,
    "<RESERVED_3841>": 3846,
    "<RESERVED_3842>": 3847,
    "<RESERVED_3843>": 3848,
    "<RESERVED_3844>": 3849,
    "<RESERVED_3845>": 3850,
    "<RESERVED_3846>": 3851,
    "<RESERVED_3847>": 3852,
    "<RESERVED_3848>": 3853,
    "<RESERVED_3849>": 3854,
    "<RESERVED_3850>": 3855,
    "<RESERVED_3851>": 3856,
    "<RESERVED_3852>": 3857,
    "<RESERVED_3853>": 3858,
    "<RESERVED_3854>": 3859,
    "<RESERVED_3855>": 3860,
    "<RESERVED_3856>": 3861,
    "<RESERVED_3857>": 3862,
    "<RESERVED_3858>": 3863,
    "<RESERVED_3859>": 3864,
    "<RESERVED_3860>": 3865,
    "<RESERVED_3861>": 3866,
    "<RESERVED_3862>": 3867,
    "<RESERVED_3863>": 3868,
    "<RESERVED_3864>": 3869,
    "<RESERVED_3865>": 3870,
    "<RESERVED_3866>": 3871,
    "<RESERVED_3867>": 3872,
    "<RESERVED_3868>": 3873,
    "<RESERVED_3869>": 3874,
    "<RESERVED_3870>": 3875,
    "<RESERVED_3871>": 3876,
    "<RESERVED_3872>": 3877,
    "<RESERVED_3873>": 3878,
    "<RESERVED_3874>": 3879,
    "<RESERVED_3875>": 3880,
    "<RESERVED_3876>": 3881,
    "<RESERVED_3877>": 3882,
    "<RESERVED_3878>": 3883,
    "<RESERVED_3879>": 3884,
    "<RESERVED_3880>": 3885,
    "<RESERVED_3881>": 3886,
    "<RESERVED_3882>": 3887,
    "<RESERVED_3883>": 3888,
    "<RESERVED_3884>": 3889,
    "<RESERVED_3885>": 3890,
    "<RESERVED_3886>": 3891,
    "<RESERVED_3887>": 3892,
    "<RESERVED_3888>": 3893,
    "<RESERVED_3889>": 3894,
    "<RESERVED_3890>": 3895,
    "<RESERVED_3891>": 3896,
    "<RESERVED_3892>": 3897,
    "<RESERVED_3893>": 3898,
    "<RESERVED_3894>": 3899,
    "<RESERVED_3895>": 3900,
    "<RESERVED_3896>": 3901,
    "<RESERVED_3897>": 3902,
    "<RESERVED_3898>": 3903,
    "<RESERVED_3899>": 3904,
    "<RESERVED_3900>": 3905,
    "<RESERVED_3901>": 3906,
    "<RESERVED_3902>": 3907,
    "<RESERVED_3903>": 3908,
    "<RESERVED_3904>": 3909,
    "<RESERVED_3905>": 3910,
    "<RESERVED_3906>": 3911,
    "<RESERVED_3907>": 3912,
    "<RESERVED_3908>": 3913,
    "<RESERVED_3909>": 3914,
    "<RESERVED_3910>": 3915,
    "<RESERVED_3911>": 3916,
    "<RESERVED_3912>": 3917,
    "<RESERVED_3913>": 3918,
    "<RESERVED_3914>": 3919,
    "<RESERVED_3915>": 3920,
    "<RESERVED_3916>": 3921,
    "<RESERVED_3917>": 3922,
    "<RESERVED_3918>": 3923,
    "<RESERVED_3919>": 3924,
    "<RESERVED_3920>": 3925,
    "<RESERVED_3921>": 3926,
    "<RESERVED_3922>": 3927,
    "<RESERVED_3923>": 3928,
    "<RESERVED_3924>": 3929,
    "<RESERVED_3925>": 3930,
    "<RESERVED_3926>": 3931,
    "<RESERVED_3927>": 3932,
    "<RESERVED_3928>": 3933,
    "<RESERVED_3929>": 3934,
    "<RESERVED_3930>": 3935,
    "<RESERVED_3931>": 3936,
    "<RESERVED_3932>": 3937,
    "<RESERVED_3933>": 3938,
    "<RESERVED_3934>": 3939,
    "<RESERVED_3935>": 3940,
    "<RESERVED_3936>": 3941,
    "<RESERVED_3937>": 3942,
    "<RESERVED_3938>": 3943,
    "<RESERVED_3939>": 3944,
    "<RESERVED_3940>": 3945,
    "<RESERVED_3941>": 3946,
    "<RESERVED_3942>": 3947,
    "<RESERVED_3943>": 3948,
    "<RESERVED_3944>": 3949,
    "<RESERVED_3945>": 3950,
    "<RESERVED_3946>": 3951,
    "<RESERVED_3947>": 3952,
    "<RESERVED_3948>": 3953,
    "<RESERVED_3949>": 3954,
    "<RESERVED_3950>": 3955,
    "<RESERVED_3951>": 3956,
    "<RESERVED_3952>": 3957,
    "<RESERVED_3953>": 3958,
    "<RESERVED_3954>": 3959,
    "<RESERVED_3955>": 3960,
    "<RESERVED_3956>": 3961,
    "<RESERVED_3957>": 3962,
    "<RESERVED_3958>": 3963,
    "<RESERVED_3959>": 3964,
    "<RESERVED_3960>": 3965,
    "<RESERVED_3961>": 3966,
    "<RESERVED_3962>": 3967,
    "<RESERVED_3963>": 3968,
    "<RESERVED_3964>": 3969,
    "<RESERVED_3965>": 3970,
    "<RESERVED_3966>": 3971,
    "<RESERVED_3967>": 3972,
    "<RESERVED_3968>": 3973,
    "<RESERVED_3969>": 3974,
    "<RESERVED_3970>": 3975,
    "<RESERVED_3971>": 3976,
    "<RESERVED_3972>": 3977,
    "<RESERVED_3973>": 3978,
    "<RESERVED_3974>": 3979,
    "<RESERVED_3975>": 3980,
    "<RESERVED_3976>": 3981,
    "<RESERVED_3977>": 3982,
    "<RESERVED_3978>": 3983,
    "<RESERVED_3979>": 3984,
    "<RESERVED_3980>": 3985,
    "<RESERVED_3981>": 3986,
    "<RESERVED_3982>": 3987,
    "<RESERVED_3983>": 3988,
    "<RESERVED_3984>": 3989,
    "<RESERVED_3985>": 3990,
    "<RESERVED_3986>": 3991,
    "<RESERVED_3987>": 3992,
    "<RESERVED_3988>": 3993,
    "<RESERVED_3989>": 3994,
    "<RESERVED_3990>": 3995,
    "<RESERVED_3991>": 3996,
    "<RESERVED_3992>": 3997,
    "<RESERVED_3993>": 3998,
    "<RESERVED_3994>": 3999,
    "<RESERVED_3995>": 4000,
    "<RESERVED_3996>": 4001,
    "<RESERVED_3997>": 4002,
    "<RESERVED_3998>": 4003,
    "<RESERVED_3999>": 4004,
    "<RESERVED_4000>": 4005,
    "<RESERVED_4001>": 4006,
    "<RESERVED_4002>": 4007,
    "<RESERVED_4003>": 4008,
    "<RESERVED_4004>": 4009,
    "<RESERVED_4005>": 4010,
    "<RESERVED_4006>": 4011,
    "<RESERVED_4007>": 4012,
    "<RESERVED_4008>": 4013,
    "<RESERVED_4009>": 4014,
    "<RESERVED_4010>": 4015,
    "<RESERVED_4011>": 4016,
    "<RESERVED_4012>": 4017,
    "<RESERVED_4013>": 4018,
    "<RESERVED_4014>": 4019,
    "<RESERVED_4015>": 4020,
    "<RESERVED_4016>": 4021,
    "<RESERVED_4017>": 4022,
    "<RESERVED_4018>": 4023,
    "<RESERVED_4019>": 4024,
    "<RESERVED_4020>": 4025,
    "<RESERVED_4021>": 4026,
    "<RESERVED_4022>": 4027,
    "<RESERVED_4023>": 4028,
    "<RESERVED_4024>": 4029,
    "<RESERVED_4025>": 4030,
    "<RESERVED_4026>": 4031,
    "<RESERVED_4027>": 4032,
    "<RESERVED_4028>": 4033,
    "<RESERVED_4029>": 4034,
    "<RESERVED_4030>": 4035,
    "<RESERVED_4031>": 4036,
    "<RESERVED_4032>": 4037,
    "<RESERVED_4033>": 4038,
    "<RESERVED_4034>": 4039,
    "<RESERVED_4035>": 4040,
    "<RESERVED_4036>": 4041,
    "<RESERVED_4037>": 4042,
    "<RESERVED_4038>": 4043,
    "<RESERVED_4039>": 4044,
    "<RESERVED_4040>": 4045,
    "<RESERVED_4041>": 4046,
    "<RESERVED_4042>": 4047,
    "<RESERVED_4043>": 4048,
    "<RESERVED_4044>": 4049,
    "<RESERVED_4045>": 4050,
    "<RESERVED_4046>": 4051,
    "<RESERVED_4047>": 4052,
    "<RESERVED_4048>": 4053,
    "<RESERVED_4049>": 4054,
    "<RESERVED_4050>": 4055,
    "<RESERVED_4051>": 4056,
    "<RESERVED_4052>": 4057,
    "<RESERVED_4053>": 4058,
    "<RESERVED_4054>": 4059,
    "<RESERVED_4055>": 4060,
    "<RESERVED_4056>": 4061,
    "<RESERVED_4057>": 4062,
    "<RESERVED_4058>": 4063,
    "<RESERVED_4059>": 4064,
    "<RESERVED_4060>": 4065,
    "<RESERVED_4061>": 4066,
    "<RESERVED_4062>": 4067,
    "<RESERVED_4063>": 4068,
    "<RESERVED_4064>": 4069,
    "<RESERVED_4065>": 4070,
    "<RESERVED_4066>": 4071,
    "<RESERVED_4067>": 4072,
    "<RESERVED_4068>": 4073,
    "<RESERVED_4069>": 4074,
    "<RESERVED_4070>": 4075,
    "<RESERVED_4071>": 4076,
    "<RESERVED_4072>": 4077,
    "<RESERVED_4073>": 4078,
    "<RESERVED_4074>": 4079,
    "<RESERVED_4075>": 4080,
    "<RESERVED_4076>": 4081,
    "<RESERVED_4077>": 4082,
    "<RESERVED_4078>": 4083,
    "<RESERVED_4079>": 4084,
    "<RESERVED_4080>": 4085,
    "<RESERVED_4081>": 4086,
    "<RESERVED_4082>": 4087,
    "<RESERVED_4083>": 4088,
    "<RESERVED_4084>": 4089,
    "<RESERVED_4085>": 4090,
    "<RESERVED_4086>": 4091,
    "<RESERVED_4087>": 4092,
    "<RESERVED_4088>": 4093,
    "<RESERVED_4089>": 4094,
    "<RESERVED_4090>": 4095,
    "<RESERVED_4091>": 4096,
    "<RESERVED_4092>": 4097,
    "<RESERVED_4093>": 4098,
    "<RESERVED_4094>": 4099,
    "<RESERVED_4095>": 4100,
    "<RESERVED_4096>": 4101,
    "<RESERVED_4097>": 4102,
    "<RESERVED_4098>": 4103,
    "<RESERVED_4099>": 4104,
    "<RESERVED_4100>": 4105,
    "<RESERVED_4101>": 4106,
    "<RESERVED_4102>": 4107,
    "<RESERVED_4103>": 4108,
    "<RESERVED_4104>": 4109,
    "<RESERVED_4105>": 4110,
    "<RESERVED_4106>": 4111,
    "<RESERVED_4107>": 4112,
    "<RESERVED_4108>": 4113,
    "<RESERVED_4109>": 4114,
    "<RESERVED_4110>": 4115,
    "<RESERVED_4111>": 4116,
    "<RESERVED_4112>": 4117,
    "<RESERVED_4113>": 4118,
    "<RESERVED_4114>": 4119,
    "<RESERVED_4115>": 4120,
    "<RESERVED_4116>": 4121,
    "<RESERVED_4117>": 4122,
    "<RESERVED_4118>": 4123,
    "<RESERVED_4119>": 4124,
    "<RESERVED_4120>": 4125,
    "<RESERVED_4121>": 4126,
    "<RESERVED_4122>": 4127,
    "<RESERVED_4123>": 4128,
    "<RESERVED_4124>": 4129,
    "<RESERVED_4125>": 4130,
    "<RESERVED_4126>": 4131,
    "<RESERVED_4127>": 4132,
    "<RESERVED_4128>": 4133,
    "<RESERVED_4129>": 4134,
    "<RESERVED_4130>": 4135,
    "<RESERVED_4131>": 4136,
    "<RESERVED_4132>": 4137,
    "<RESERVED_4133>": 4138,
    "<RESERVED_4134>": 4139,
    "<RESERVED_4135>": 4140,
    "<RESERVED_4136>": 4141,
    "<RESERVED_4137>": 4142,
    "<RESERVED_4138>": 4143,
    "<RESERVED_4139>": 4144,
    "<RESERVED_4140>": 4145,
    "<RESERVED_4141>": 4146,
    "<RESERVED_4142>": 4147,
    "<RESERVED_4143>": 4148,
    "<RESERVED_4144>": 4149,
    "<RESERVED_4145>": 4150,
    "<RESERVED_4146>": 4151,
    "<RESERVED_4147>": 4152,
    "<RESERVED_4148>": 4153,
    "<RESERVED_4149>": 4154,
    "<RESERVED_4150>": 4155,
    "<RESERVED_4151>": 4156,
    "<RESERVED_4152>": 4157,
    "<RESERVED_4153>": 4158,
    "<RESERVED_4154>": 4159,
    "<RESERVED_4155>": 4160,
    "<RESERVED_4156>": 4161,
    "<RESERVED_4157>": 4162,
    "<RESERVED_4158>": 4163,
    "<RESERVED_4159>": 4164,
    "<RESERVED_4160>": 4165,
    "<RESERVED_4161>": 4166,
    "<RESERVED_4162>": 4167,
    "<RESERVED_4163>": 4168,
    "<RESERVED_4164>": 4169,
    "<RESERVED_4165>": 4170,
    "<RESERVED_4166>": 4171,
    "<RESERVED_4167>": 4172,
    "<RESERVED_4168>": 4173,
    "<RESERVED_4169>": 4174,
    "<RESERVED_4170>": 4175,
    "<RESERVED_4171>": 4176,
    "<RESERVED_4172>": 4177,
    "<RESERVED_4173>": 4178,
    "<RESERVED_4174>": 4179,
    "<RESERVED_4175>": 4180,
    "<RESERVED_4176>": 4181,
    "<RESERVED_4177>": 4182,
    "<RESERVED_4178>": 4183,
    "<RESERVED_4179>": 4184,
    "<RESERVED_4180>": 4185,
    "<RESERVED_4181>": 4186,
    "<RESERVED_4182>": 4187,
    "<RESERVED_4183>": 4188,
    "<RESERVED_4184>": 4189,
    "<RESERVED_4185>": 4190,
    "<RESERVED_4186>": 4191,
    "<RESERVED_4187>": 4192,
    "<RESERVED_4188>": 4193,
    "<RESERVED_4189>": 4194,
    "<RESERVED_4190>": 4195,
    "<RESERVED_4191>": 4196,
    "<RESERVED_4192>": 4197,
    "<RESERVED_4193>": 4198,
    "<RESERVED_4194>": 4199,
    "<RESERVED_4195>": 4200,
    "<RESERVED_4196>": 4201,
    "<RESERVED_4197>": 4202,
    "<RESERVED_4198>": 4203,
    "<RESERVED_4199>": 4204,
    "<RESERVED_4200>": 4205,
    "<RESERVED_4201>": 4206,
    "<RESERVED_4202>": 4207,
    "<RESERVED_4203>": 4208,
    "<RESERVED_4204>": 4209,
    "<RESERVED_4205>": 4210,
    "<RESERVED_4206>": 4211,
    "<RESERVED_4207>": 4212,
    "<RESERVED_4208>": 4213,
    "<RESERVED_4209>": 4214,
    "<RESERVED_4210>": 4215,
    "<RESERVED_4211>": 4216,
    "<RESERVED_4212>": 4217,
    "<RESERVED_4213>": 4218,
    "<RESERVED_4214>": 4219,
    "<RESERVED_4215>": 4220,
    "<RESERVED_4216>": 4221,
    "<RESERVED_4217>": 4222,
    "<RESERVED_4218>": 4223,
    "<RESERVED_4219>": 4224,
    "<RESERVED_4220>": 4225,
    "<RESERVED_4221>": 4226,
    "<RESERVED_4222>": 4227,
    "<RESERVED_4223>": 4228,
    "<RESERVED_4224>": 4229,
    "<RESERVED_4225>": 4230,
    "<RESERVED_4226>": 4231,
    "<RESERVED_4227>": 4232,
    "<RESERVED_4228>": 4233,
    "<RESERVED_4229>": 4234,
    "<RESERVED_4230>": 4235,
    "<RESERVED_4231>": 4236,
    "<RESERVED_4232>": 4237,
    "<RESERVED_4233>": 4238,
    "<RESERVED_4234>": 4239,
    "<RESERVED_4235>": 4240,
    "<RESERVED_4236>": 4241,
    "<RESERVED_4237>": 4242,
    "<RESERVED_4238>": 4243,
    "<RESERVED_4239>": 4244,
    "<RESERVED_4240>": 4245,
    "<RESERVED_4241>": 4246,
    "<RESERVED_4242>": 4247,
    "<RESERVED_4243>": 4248,
    "<RESERVED_4244>": 4249,
    "<RESERVED_4245>": 4250,
    "<RESERVED_4246>": 4251,
    "<RESERVED_4247>": 4252,
    "<RESERVED_4248>": 4253,
    "<RESERVED_4249>": 4254,
    "<RESERVED_4250>": 4255,
    "<RESERVED_4251>": 4256,
    "<RESERVED_4252>": 4257,
    "<RESERVED_4253>": 4258,
    "<RESERVED_4254>": 4259,
    "<RESERVED_4255>": 4260,
    "<RESERVED_4256>": 4261,
    "<RESERVED_4257>": 4262,
    "<RESERVED_4258>": 4263,
    "<RESERVED_4259>": 4264,
    "<RESERVED_4260>": 4265,
    "<RESERVED_4261>": 4266,
    "<RESERVED_4262>": 4267,
    "<RESERVED_4263>": 4268,
    "<RESERVED_4264>": 4269,
    "<RESERVED_4265>": 4270,
    "<RESERVED_4266>": 4271,
    "<RESERVED_4267>": 4272,
    "<RESERVED_4268>": 4273,
    "<RESERVED_4269>": 4274,
    "<RESERVED_4270>": 4275,
    "<RESERVED_4271>": 4276,
    "<RESERVED_4272>": 4277,
    "<RESERVED_4273>": 4278,
    "<RESERVED_4274>": 4279,
    "<RESERVED_4275>": 4280,
    "<RESERVED_4276>": 4281,
    "<RESERVED_4277>": 4282,
    "<RESERVED_4278>": 4283,
    "<RESERVED_4279>": 4284,
    "<RESERVED_4280>": 4285,
    "<RESERVED_4281>": 4286,
    "<RESERVED_4282>": 4287,
    "<RESERVED_4283>": 4288,
    "<RESERVED_4284>": 4289,
    "<RESERVED_4285>": 4290,
    "<RESERVED_4286>": 4291,
    "<RESERVED_4287>": 4292,
    "<RESERVED_4288>": 4293,
    "<RESERVED_4289>": 4294,
    "<RESERVED_4290>": 4295,
    "<RESERVED_4291>": 4296,
    "<RESERVED_4292>": 4297,
    "<RESERVED_4293>": 4298,
    "<RESERVED_4294>": 4299,
    "<RESERVED_4295>": 4300,
    "<RESERVED_4296>": 4301,
    "<RESERVED_4297>": 4302,
    "<RESERVED_4298>": 4303,
    "<RESERVED_4299>": 4304,
    "<RESERVED_4300>": 4305,
    "<RESERVED_4301>": 4306,
    "<RESERVED_4302>": 4307,
    "<RESERVED_4303>": 4308,
    "<RESERVED_4304>": 4309,
    "<RESERVED_4305>": 4310,
    "<RESERVED_4306>": 4311,
    "<RESERVED_4307>": 4312,
    "<RESERVED_4308>": 4313,
    "<RESERVED_4309>": 4314,
    "<RESERVED_4310>": 4315,
    "<RESERVED_4311>": 4316,
    "<RESERVED_4312>": 4317,
    "<RESERVED_4313>": 4318,
    "<RESERVED_4314>": 4319,
    "<RESERVED_4315>": 4320,
    "<RESERVED_4316>": 4321,
    "<RESERVED_4317>": 4322,
    "<RESERVED_4318>": 4323,
    "<RESERVED_4319>": 4324,
    "<RESERVED_4320>": 4325,
    "<RESERVED_4321>": 4326,
    "<RESERVED_4322>": 4327,
    "<RESERVED_4323>": 4328,
    "<RESERVED_4324>": 4329,
    "<RESERVED_4325>": 4330,
    "<RESERVED_4326>": 4331,
    "<RESERVED_4327>": 4332,
    "<RESERVED_4328>": 4333,
    "<RESERVED_4329>": 4334,
    "<RESERVED_4330>": 4335,
    "<RESERVED_4331>": 4336,
    "<RESERVED_4332>": 4337,
    "<RESERVED_4333>": 4338,
    "<RESERVED_4334>": 4339,
    "<RESERVED_4335>": 4340,
    "<RESERVED_4336>": 4341,
    "<RESERVED_4337>": 4342,
    "<RESERVED_4338>": 4343,
    "<RESERVED_4339>": 4344,
    "<RESERVED_4340>": 4345,
    "<RESERVED_4341>": 4346,
    "<RESERVED_4342>": 4347,
    "<RESERVED_4343>": 4348,
    "<RESERVED_4344>": 4349,
    "<RESERVED_4345>": 4350,
    "<RESERVED_4346>": 4351,
    "<RESERVED_4347>": 4352,
    "<RESERVED_4348>": 4353,
    "<RESERVED_4349>": 4354,
    "<RESERVED_4350>": 4355,
    "<RESERVED_4351>": 4356,
    "<RESERVED_4352>": 4357,
    "<RESERVED_4353>": 4358,
    "<RESERVED_4354>": 4359,
    "<RESERVED_4355>": 4360,
    "<RESERVED_4356>": 4361,
    "<RESERVED_4357>": 4362,
    "<RESERVED_4358>": 4363,
    "<RESERVED_4359>": 4364,
    "<RESERVED_4360>": 4365,
    "<RESERVED_4361>": 4366,
    "<RESERVED_4362>": 4367,
    "<RESERVED_4363>": 4368,
    "<RESERVED_4364>": 4369,
    "<RESERVED_4365>": 4370,
    "<RESERVED_4366>": 4371,
    "<RESERVED_4367>": 4372,
    "<RESERVED_4368>": 4373,
    "<RESERVED_4369>": 4374,
    "<RESERVED_4370>": 4375,
    "<RESERVED_4371>": 4376,
    "<RESERVED_4372>": 4377,
    "<RESERVED_4373>": 4378,
    "<RESERVED_4374>": 4379,
    "<RESERVED_4375>": 4380,
    "<RESERVED_4376>": 4381,
    "<RESERVED_4377>": 4382,
    "<RESERVED_4378>": 4383,
    "<RESERVED_4379>": 4384,
    "<RESERVED_4380>": 4385,
    "<RESERVED_4381>": 4386,
    "<RESERVED_4382>": 4387,
    "<RESERVED_4383>": 4388,
    "<RESERVED_4384>": 4389,
    "<RESERVED_4385>": 4390,
    "<RESERVED_4386>": 4391,
    "<RESERVED_4387>": 4392,
    "<RESERVED_4388>": 4393,
    "<RESERVED_4389>": 4394,
    "<RESERVED_4390>": 4395,
    "<RESERVED_4391>": 4396,
    "<RESERVED_4392>": 4397,
    "<RESERVED_4393>": 4398,
    "<RESERVED_4394>": 4399,
    "<RESERVED_4395>": 4400,
    "<RESERVED_4396>": 4401,
    "<RESERVED_4397>": 4402,
    "<RESERVED_4398>": 4403,
    "<RESERVED_4399>": 4404,
    "<RESERVED_4400>": 4405,
    "<RESERVED_4401>": 4406,
    "<RESERVED_4402>": 4407,
    "<RESERVED_4403>": 4408,
    "<RESERVED_4404>": 4409,
    "<RESERVED_4405>": 4410,
    "<RESERVED_4406>": 4411,
    "<RESERVED_4407>": 4412,
    "<RESERVED_4408>": 4413,
    "<RESERVED_4409>": 4414,
    "<RESERVED_4410>": 4415,
    "<RESERVED_4411>": 4416,
    "<RESERVED_4412>": 4417,
    "<RESERVED_4413>": 4418,
    "<RESERVED_4414>": 4419,
    "<RESERVED_4415>": 4420,
    "<RESERVED_4416>": 4421,
    "<RESERVED_4417>": 4422,
    "<RESERVED_4418>": 4423,
    "<RESERVED_4419>": 4424,
    "<RESERVED_4420>": 4425,
    "<RESERVED_4421>": 4426,
    "<RESERVED_4422>": 4427,
    "<RESERVED_4423>": 4428,
    "<RESERVED_4424>": 4429,
    "<RESERVED_4425>": 4430,
    "<RESERVED_4426>": 4431,
    "<RESERVED_4427>": 4432,
    "<RESERVED_4428>": 4433,
    "<RESERVED_4429>": 4434,
    "<RESERVED_4430>": 4435,
    "<RESERVED_4431>": 4436,
    "<RESERVED_4432>": 4437,
    "<RESERVED_4433>": 4438,
    "<RESERVED_4434>": 4439,
    "<RESERVED_4435>": 4440,
    "<RESERVED_4436>": 4441,
    "<RESERVED_4437>": 4442,
    "<RESERVED_4438>": 4443,
    "<RESERVED_4439>": 4444,
    "<RESERVED_4440>": 4445,
    "<RESERVED_4441>": 4446,
    "<RESERVED_4442>": 4447,
    "<RESERVED_4443>": 4448,
    "<RESERVED_4444>": 4449,
    "<RESERVED_4445>": 4450,
    "<RESERVED_4446>": 4451,
    "<RESERVED_4447>": 4452,
    "<RESERVED_4448>": 4453,
    "<RESERVED_4449>": 4454,
    "<RESERVED_4450>": 4455,
    "<RESERVED_4451>": 4456,
    "<RESERVED_4452>": 4457,
    "<RESERVED_4453>": 4458,
    "<RESERVED_4454>": 4459,
    "<RESERVED_4455>": 4460,
    "<RESERVED_4456>": 4461,
    "<RESERVED_4457>": 4462,
    "<RESERVED_4458>": 4463,
    "<RESERVED_4459>": 4464,
    "<RESERVED_4460>": 4465,
    "<RESERVED_4461>": 4466,
    "<RESERVED_4462>": 4467,
    "<RESERVED_4463>": 4468,
    "<RESERVED_4464>": 4469,
    "<RESERVED_4465>": 4470,
    "<RESERVED_4466>": 4471,
    "<RESERVED_4467>": 4472,
    "<RESERVED_4468>": 4473,
    "<RESERVED_4469>": 4474,
    "<RESERVED_4470>": 4475,
    "<RESERVED_4471>": 4476,
    "<RESERVED_4472>": 4477,
    "<RESERVED_4473>": 4478,
    "<RESERVED_4474>": 4479,
    "<RESERVED_4475>": 4480,
    "<RESERVED_4476>": 4481,
    "<RESERVED_4477>": 4482,
    "<RESERVED_4478>": 4483,
    "<RESERVED_4479>": 4484,
    "<RESERVED_4480>": 4485,
    "<RESERVED_4481>": 4486,
    "<RESERVED_4482>": 4487,
    "<RESERVED_4483>": 4488,
    "<RESERVED_4484>": 4489,
    "<RESERVED_4485>": 4490,
    "<RESERVED_4486>": 4491,
    "<RESERVED_4487>": 4492,
    "<RESERVED_4488>": 4493,
    "<RESERVED_4489>": 4494,
    "<RESERVED_4490>": 4495,
    "<RESERVED_4491>": 4496,
    "<RESERVED_4492>": 4497,
    "<RESERVED_4493>": 4498,
    "<RESERVED_4494>": 4499,
    "<RESERVED_4495>": 4500,
    "<RESERVED_4496>": 4501,
    "<RESERVED_4497>": 4502,
    "<RESERVED_4498>": 4503,
    "<RESERVED_4499>": 4504,
    "<RESERVED_4500>": 4505,
    "<RESERVED_4501>": 4506,
    "<RESERVED_4502>": 4507,
    "<RESERVED_4503>": 4508,
    "<RESERVED_4504>": 4509,
    "<RESERVED_4505>": 4510,
    "<RESERVED_4506>": 4511,
    "<RESERVED_4507>": 4512,
    "<RESERVED_4508>": 4513,
    "<RESERVED_4509>": 4514,
    "<RESERVED_4510>": 4515,
    "<RESERVED_4511>": 4516,
    "<RESERVED_4512>": 4517,
    "<RESERVED_4513>": 4518,
    "<RESERVED_4514>": 4519,
    "<RESERVED_4515>": 4520,
    "<RESERVED_4516>": 4521,
    "<RESERVED_4517>": 4522,
    "<RESERVED_4518>": 4523,
    "<RESERVED_4519>": 4524,
    "<RESERVED_4520>": 4525,
    "<RESERVED_4521>": 4526,
    "<RESERVED_4522>": 4527,
    "<RESERVED_4523>": 4528,
    "<RESERVED_4524>": 4529,
    "<RESERVED_4525>": 4530,
    "<RESERVED_4526>": 4531,
    "<RESERVED_4527>": 4532,
    "<RESERVED_4528>": 4533,
    "<RESERVED_4529>": 4534,
    "<RESERVED_4530>": 4535,
    "<RESERVED_4531>": 4536,
    "<RESERVED_4532>": 4537,
    "<RESERVED_4533>": 4538,
    "<RESERVED_4534>": 4539,
    "<RESERVED_4535>": 4540,
    "<RESERVED_4536>": 4541,
    "<RESERVED_4537>": 4542,
    "<RESERVED_4538>": 4543,
    "<RESERVED_4539>": 4544,
    "<RESERVED_4540>": 4545,
    "<RESERVED_4541>": 4546,
    "<RESERVED_4542>": 4547,
    "<RESERVED_4543>": 4548,
    "<RESERVED_4544>": 4549,
    "<RESERVED_4545>": 4550,
    "<RESERVED_4546>": 4551,
    "<RESERVED_4547>": 4552,
    "<RESERVED_4548>": 4553,
    "<RESERVED_4549>": 4554,
    "<RESERVED_4550>": 4555,
    "<RESERVED_4551>": 4556,
    "<RESERVED_4552>": 4557,
    "<RESERVED_4553>": 4558,
    "<RESERVED_4554>": 4559,
    "<RESERVED_4555>": 4560,
    "<RESERVED_4556>": 4561,
    "<RESERVED_4557>": 4562,
    "<RESERVED_4558>": 4563,
    "<RESERVED_4559>": 4564,
    "<RESERVED_4560>": 4565,
    "<RESERVED_4561>": 4566,
    "<RESERVED_4562>": 4567,
    "<RESERVED_4563>": 4568,
    "<RESERVED_4564>": 4569,
    "<RESERVED_4565>": 4570,
    "<RESERVED_4566>": 4571,
    "<RESERVED_4567>": 4572,
    "<RESERVED_4568>": 4573,
    "<RESERVED_4569>": 4574,
    "<RESERVED_4570>": 4575,
    "<RESERVED_4571>": 4576,
    "<RESERVED_4572>": 4577,
    "<RESERVED_4573>": 4578,
    "<RESERVED_4574>": 4579,
    "<RESERVED_4575>": 4580,
    "<RESERVED_4576>": 4581,
    "<RESERVED_4577>": 4582,
    "<RESERVED_4578>": 4583,
    "<RESERVED_4579>": 4584,
    "<RESERVED_4580>": 4585,
    "<RESERVED_4581>": 4586,
    "<RESERVED_4582>": 4587,
    "<RESERVED_4583>": 4588,
    "<RESERVED_4584>": 4589,
    "<RESERVED_4585>": 4590,
    "<RESERVED_4586>": 4591,
    "<RESERVED_4587>": 4592,
    "<RESERVED_4588>": 4593,
    "<RESERVED_4589>": 4594,
    "<RESERVED_4590>": 4595,
    "<RESERVED_4591>": 4596,
    "<RESERVED_4592>": 4597,
    "<RESERVED_4593>": 4598,
    "<RESERVED_4594>": 4599,
    "<RESERVED_4595>": 4600,
    "<RESERVED_4596>": 4601,
    "<RESERVED_4597>": 4602,
    "<RESERVED_4598>": 4603,
    "<RESERVED_4599>": 4604,
    "<RESERVED_4600>": 4605,
    "<RESERVED_4601>": 4606,
    "<RESERVED_4602>": 4607,
    "<RESERVED_4603>": 4608,
    "<RESERVED_4604>": 4609,
    "<RESERVED_4605>": 4610,
    "<RESERVED_4606>": 4611,
    "<RESERVED_4607>": 4612,
    "<RESERVED_4608>": 4613,
    "<RESERVED_4609>": 4614,
    "<RESERVED_4610>": 4615,
    "<RESERVED_4611>": 4616,
    "<RESERVED_4612>": 4617,
    "<RESERVED_4613>": 4618,
    "<RESERVED_4614>": 4619,
    "<RESERVED_4615>": 4620,
    "<RESERVED_4616>": 4621,
    "<RESERVED_4617>": 4622,
    "<RESERVED_4618>": 4623,
    "<RESERVED_4619>": 4624,
    "<RESERVED_4620>": 4625,
    "<RESERVED_4621>": 4626,
    "<RESERVED_4622>": 4627,
    "<RESERVED_4623>": 4628,
    "<RESERVED_4624>": 4629,
    "<RESERVED_4625>": 4630,
    "<RESERVED_4626>": 4631,
    "<RESERVED_4627>": 4632,
    "<RESERVED_4628>": 4633,
    "<RESERVED_4629>": 4634,
    "<RESERVED_4630>": 4635,
    "<RESERVED_4631>": 4636,
    "<RESERVED_4632>": 4637,
    "<RESERVED_4633>": 4638,
    "<RESERVED_4634>": 4639,
    "<RESERVED_4635>": 4640,
    "<RESERVED_4636>": 4641,
    "<RESERVED_4637>": 4642,
    "<RESERVED_4638>": 4643,
    "<RESERVED_4639>": 4644,
    "<RESERVED_4640>": 4645,
    "<RESERVED_4641>": 4646,
    "<RESERVED_4642>": 4647,
    "<RESERVED_4643>": 4648,
    "<RESERVED_4644>": 4649,
    "<RESERVED_4645>": 4650,
    "<RESERVED_4646>": 4651,
    "<RESERVED_4647>": 4652,
    "<RESERVED_4648>": 4653,
    "<RESERVED_4649>": 4654,
    "<RESERVED_4650>": 4655,
    "<RESERVED_4651>": 4656,
    "<RESERVED_4652>": 4657,
    "<RESERVED_4653>": 4658,
    "<RESERVED_4654>": 4659,
    "<RESERVED_4655>": 4660,
    "<RESERVED_4656>": 4661,
    "<RESERVED_4657>": 4662,
    "<RESERVED_4658>": 4663,
    "<RESERVED_4659>": 4664,
    "<RESERVED_4660>": 4665,
    "<RESERVED_4661>": 4666,
    "<RESERVED_4662>": 4667,
    "<RESERVED_4663>": 4668,
    "<RESERVED_4664>": 4669,
    "<RESERVED_4665>": 4670,
    "<RESERVED_4666>": 4671,
    "<RESERVED_4667>": 4672,
    "<RESERVED_4668>": 4673,
    "<RESERVED_4669>": 4674,
    "<RESERVED_4670>": 4675,
    "<RESERVED_4671>": 4676,
    "<RESERVED_4672>": 4677,
    "<RESERVED_4673>": 4678,
    "<RESERVED_4674>": 4679,
    "<RESERVED_4675>": 4680,
    "<RESERVED_4676>": 4681,
    "<RESERVED_4677>": 4682,
    "<RESERVED_4678>": 4683,
    "<RESERVED_4679>": 4684,
    "<RESERVED_4680>": 4685,
    "<RESERVED_4681>": 4686,
    "<RESERVED_4682>": 4687,
    "<RESERVED_4683>": 4688,
    "<RESERVED_4684>": 4689,
    "<RESERVED_4685>": 4690,
    "<RESERVED_4686>": 4691,
    "<RESERVED_4687>": 4692,
    "<RESERVED_4688>": 4693,
    "<RESERVED_4689>": 4694,
    "<RESERVED_4690>": 4695,
    "<RESERVED_4691>": 4696,
    "<RESERVED_4692>": 4697,
    "<RESERVED_4693>": 4698,
    "<RESERVED_4694>": 4699,
    "<RESERVED_4695>": 4700,
    "<RESERVED_4696>": 4701,
    "<RESERVED_4697>": 4702,
    "<RESERVED_4698>": 4703,
    "<RESERVED_4699>": 4704,
    "<RESERVED_4700>": 4705,
    "<RESERVED_4701>": 4706,
    "<RESERVED_4702>": 4707,
    "<RESERVED_4703>": 4708,
    "<RESERVED_4704>": 4709,
    "<RESERVED_4705>": 4710,
    "<RESERVED_4706>": 4711,
    "<RESERVED_4707>": 4712,
    "<RESERVED_4708>": 4713,
    "<RESERVED_4709>": 4714,
    "<RESERVED_4710>": 4715,
    "<RESERVED_4711>": 4716,
    "<RESERVED_4712>": 4717,
    "<RESERVED_4713>": 4718,
    "<RESERVED_4714>": 4719,
    "<RESERVED_4715>": 4720,
    "<RESERVED_4716>": 4721,
    "<RESERVED_4717>": 4722,
    "<RESERVED_4718>": 4723,
    "<RESERVED_4719>": 4724,
    "<RESERVED_4720>": 4725,
    "<RESERVED_4721>": 4726,
    "<RESERVED_4722>": 4727,
    "<RESERVED_4723>": 4728,
    "<RESERVED_4724>": 4729,
    "<RESERVED_4725>": 4730,
    "<RESERVED_4726>": 4731,
    "<RESERVED_4727>": 4732,
    "<RESERVED_4728>": 4733,
    "<RESERVED_4729>": 4734,
    "<RESERVED_4730>": 4735,
    "<RESERVED_4731>": 4736,
    "<RESERVED_4732>": 4737,
    "<RESERVED_4733>": 4738,
    "<RESERVED_4734>": 4739,
    "<RESERVED_4735>": 4740,
    "<RESERVED_4736>": 4741,
    "<RESERVED_4737>": 4742,
    "<RESERVED_4738>": 4743,
    "<RESERVED_4739>": 4744,
    "<RESERVED_4740>": 4745,
    "<RESERVED_4741>": 4746,
    "<RESERVED_4742>": 4747,
    "<RESERVED_4743>": 4748,
    "<RESERVED_4744>": 4749,
    "<RESERVED_4745>": 4750,
    "<RESERVED_4746>": 4751,
    "<RESERVED_4747>": 4752,
    "<RESERVED_4748>": 4753,
    "<RESERVED_4749>": 4754,
    "<RESERVED_4750>": 4755,
    "<RESERVED_4751>": 4756,
    "<RESERVED_4752>": 4757,
    "<RESERVED_4753>": 4758,
    "<RESERVED_4754>": 4759,
    "<RESERVED_4755>": 4760,
    "<RESERVED_4756>": 4761,
    "<RESERVED_4757>": 4762,
    "<RESERVED_4758>": 4763,
    "<RESERVED_4759>": 4764,
    "<RESERVED_4760>": 4765,
    "<RESERVED_4761>": 4766,
    "<RESERVED_4762>": 4767,
    "<RESERVED_4763>": 4768,
    "<RESERVED_4764>": 4769,
    "<RESERVED_4765>": 4770,
    "<RESERVED_4766>": 4771,
    "<RESERVED_4767>": 4772,
    "<RESERVED_4768>": 4773,
    "<RESERVED_4769>": 4774,
    "<RESERVED_4770>": 4775,
    "<RESERVED_4771>": 4776,
    "<RESERVED_4772>": 4777,
    "<RESERVED_4773>": 4778,
    "<RESERVED_4774>": 4779,
    "<RESERVED_4775>": 4780,
    "<RESERVED_4776>": 4781,
    "<RESERVED_4777>": 4782,
    "<RESERVED_4778>": 4783,
    "<RESERVED_4779>": 4784,
    "<RESERVED_4780>": 4785,
    "<RESERVED_4781>": 4786,
    "<RESERVED_4782>": 4787,
    "<RESERVED_4783>": 4788,
    "<RESERVED_4784>": 4789,
    "<RESERVED_4785>": 4790,
    "<RESERVED_4786>": 4791,
    "<RESERVED_4787>": 4792,
    "<RESERVED_4788>": 4793,
    "<RESERVED_4789>": 4794,
    "<RESERVED_4790>": 4795,
    "<RESERVED_4791>": 4796,
    "<RESERVED_4792>": 4797,
    "<RESERVED_4793>": 4798,
    "<RESERVED_4794>": 4799,
    "<RESERVED_4795>": 4800,
    "<RESERVED_4796>": 4801,
    "<RESERVED_4797>": 4802,
    "<RESERVED_4798>": 4803,
    "<RESERVED_4799>": 4804,
    "<RESERVED_4800>": 4805,
    "<RESERVED_4801>": 4806,
    "<RESERVED_4802>": 4807,
    "<RESERVED_4803>": 4808,
    "<RESERVED_4804>": 4809,
    "<RESERVED_4805>": 4810,
    "<RESERVED_4806>": 4811,
    "<RESERVED_4807>": 4812,
    "<RESERVED_4808>": 4813,
    "<RESERVED_4809>": 4814,
    "<RESERVED_4810>": 4815,
    "<RESERVED_4811>": 4816,
    "<RESERVED_4812>": 4817,
    "<RESERVED_4813>": 4818,
    "<RESERVED_4814>": 4819,
    "<RESERVED_4815>": 4820,
    "<RESERVED_4816>": 4821,
    "<RESERVED_4817>": 4822,
    "<RESERVED_4818>": 4823,
    "<RESERVED_4819>": 4824,
    "<RESERVED_4820>": 4825,
    "<RESERVED_4821>": 4826,
    "<RESERVED_4822>": 4827,
    "<RESERVED_4823>": 4828,
    "<RESERVED_4824>": 4829,
    "<RESERVED_4825>": 4830,
    "<RESERVED_4826>": 4831,
    "<RESERVED_4827>": 4832,
    "<RESERVED_4828>": 4833,
    "<RESERVED_4829>": 4834,
    "<RESERVED_4830>": 4835,
    "<RESERVED_4831>": 4836,
    "<RESERVED_4832>": 4837,
    "<RESERVED_4833>": 4838,
    "<RESERVED_4834>": 4839,
    "<RESERVED_4835>": 4840,
    "<RESERVED_4836>": 4841,
    "<RESERVED_4837>": 4842,
    "<RESERVED_4838>": 4843,
    "<RESERVED_4839>": 4844,
    "<RESERVED_4840>": 4845,
    "<RESERVED_4841>": 4846,
    "<RESERVED_4842>": 4847,
    "<RESERVED_4843>": 4848,
    "<RESERVED_4844>": 4849,
    "<RESERVED_4845>": 4850,
    "<RESERVED_4846>": 4851,
    "<RESERVED_4847>": 4852,
    "<RESERVED_4848>": 4853,
    "<RESERVED_4849>": 4854,
    "<RESERVED_4850>": 4855,
    "<RESERVED_4851>": 4856,
    "<RESERVED_4852>": 4857,
    "<RESERVED_4853>": 4858,
    "<RESERVED_4854>": 4859,
    "<RESERVED_4855>": 4860,
    "<RESERVED_4856>": 4861,
    "<RESERVED_4857>": 4862,
    "<RESERVED_4858>": 4863,
    "<RESERVED_4859>": 4864,
    "<RESERVED_4860>": 4865,
    "<RESERVED_4861>": 4866,
    "<RESERVED_4862>": 4867,
    "<RESERVED_4863>": 4868,
    "<RESERVED_4864>": 4869,
    "<RESERVED_4865>": 4870,
    "<RESERVED_4866>": 4871,
    "<RESERVED_4867>": 4872,
    "<RESERVED_4868>": 4873,
    "<RESERVED_4869>": 4874,
    "<RESERVED_4870>": 4875,
    "<RESERVED_4871>": 4876,
    "<RESERVED_4872>": 4877,
    "<RESERVED_4873>": 4878,
    "<RESERVED_4874>": 4879,
    "<RESERVED_4875>": 4880,
    "<RESERVED_4876>": 4881,
    "<RESERVED_4877>": 4882,
    "<RESERVED_4878>": 4883,
    "<RESERVED_4879>": 4884,
    "<RESERVED_4880>": 4885,
    "<RESERVED_4881>": 4886,
    "<RESERVED_4882>": 4887,
    "<RESERVED_4883>": 4888,
    "<RESERVED_4884>": 4889,
    "<RESERVED_4885>": 4890,
    "<RESERVED_4886>": 4891,
    "<RESERVED_4887>": 4892,
    "<RESERVED_4888>": 4893,
    "<RESERVED_4889>": 4894,
    "<RESERVED_4890>": 4895,
    "<RESERVED_4891>": 4896,
    "<RESERVED_4892>": 4897,
    "<RESERVED_4893>": 4898,
    "<RESERVED_4894>": 4899,
    "<RESERVED_4895>": 4900,
    "<RESERVED_4896>": 4901,
    "<RESERVED_4897>": 4902,
    "<RESERVED_4898>": 4903,
    "<RESERVED_4899>": 4904,
    "<RESERVED_4900>": 4905,
    "<RESERVED_4901>": 4906,
    "<RESERVED_4902>": 4907,
    "<RESERVED_4903>": 4908,
    "<RESERVED_4904>": 4909,
    "<RESERVED_4905>": 4910,
    "<RESERVED_4906>": 4911,
    "<RESERVED_4907>": 4912,
    "<RESERVED_4908>": 4913,
    "<RESERVED_4909>": 4914,
    "<RESERVED_4910>": 4915,
    "<RESERVED_4911>": 4916,
    "<RESERVED_4912>": 4917,
    "<RESERVED_4913>": 4918,
    "<RESERVED_4914>": 4919,
    "<RESERVED_4915>": 4920,
    "<RESERVED_4916>": 4921,
    "<RESERVED_4917>": 4922,
    "<RESERVED_4918>": 4923,
    "<RESERVED_4919>": 4924,
    "<RESERVED_4920>": 4925,
    "<RESERVED_4921>": 4926,
    "<RESERVED_4922>": 4927,
    "<RESERVED_4923>": 4928,
    "<RESERVED_4924>": 4929,
    "<RESERVED_4925>": 4930,
    "<RESERVED_4926>": 4931,
    "<RESERVED_4927>": 4932,
    "<RESERVED_4928>": 4933,
    "<RESERVED_4929>": 4934,
    "<RESERVED_4930>": 4935,
    "<RESERVED_4931>": 4936,
    "<RESERVED_4932>": 4937,
    "<RESERVED_4933>": 4938,
    "<RESERVED_4934>": 4939,
    "<RESERVED_4935>": 4940,
    "<RESERVED_4936>": 4941,
    "<RESERVED_4937>": 4942,
    "<RESERVED_4938>": 4943,
    "<RESERVED_4939>": 4944,
    "<RESERVED_4940>": 4945,
    "<RESERVED_4941>": 4946,
    "<RESERVED_4942>": 4947,
    "<RESERVED_4943>": 4948,
    "<RESERVED_4944>": 4949,
    "<RESERVED_4945>": 4950,
    "<RESERVED_4946>": 4951,
    "<RESERVED_4947>": 4952,
    "<RESERVED_4948>": 4953,
    "<RESERVED_4949>": 4954,
    "<RESERVED_4950>": 4955,
    "<RESERVED_4951>": 4956,
    "<RESERVED_4952>": 4957,
    "<RESERVED_4953>": 4958,
    "<RESERVED_4954>": 4959,
    "<RESERVED_4955>": 4960,
    "<RESERVED_4956>": 4961,
    "<RESERVED_4957>": 4962,
    "<RESERVED_4958>": 4963,
    "<RESERVED_4959>": 4964,
    "<RESERVED_4960>": 4965,
    "<RESERVED_4961>": 4966,
    "<RESERVED_4962>": 4967,
    "<RESERVED_4963>": 4968,
    "<RESERVED_4964>": 4969,
    "<RESERVED_4965>": 4970,
    "<RESERVED_4966>": 4971,
    "<RESERVED_4967>": 4972,
    "<RESERVED_4968>": 4973,
    "<RESERVED_4969>": 4974,
    "<RESERVED_4970>": 4975,
    "<RESERVED_4971>": 4976,
    "<RESERVED_4972>": 4977,
    "<RESERVED_4973>": 4978,
    "<RESERVED_4974>": 4979,
    "<RESERVED_4975>": 4980,
    "<RESERVED_4976>": 4981,
    "<RESERVED_4977>": 4982,
    "<RESERVED_4978>": 4983,
    "<RESERVED_4979>": 4984,
    "<RESERVED_4980>": 4985,
    "<RESERVED_4981>": 4986,
    "<RESERVED_4982>": 4987,
    "<RESERVED_4983>": 4988,
    "<RESERVED_4984>": 4989,
    "<RESERVED_4985>": 4990,
    "<RESERVED_4986>": 4991,
    "<RESERVED_4987>": 4992,
    "<RESERVED_4988>": 4993,
    "<RESERVED_4989>": 4994,
    "<RESERVED_4990>": 4995,
    "<RESERVED_4991>": 4996,
    "<RESERVED_4992>": 4997,
    "<RESERVED_4993>": 4998,
    "<RESERVED_4994>": 4999,
    "<RESERVED_4995>": 5000,
    "<RESERVED_4996>": 5001,
    "<RESERVED_4997>": 5002,
    "<RESERVED_4998>": 5003,
    "<RESERVED_4999>": 5004,
    "▁": 5005,
    "a": 5006,
    "-": 5007,
    "b": 5008,
    "e": 5009,
    "t": 5010,
    "d": 5011,
    "i": 5012,
    "h": 5013,
    "n": 5014,
    "k": 5015,
    "u": 5016,
    "s": 5017,
    "l": 5018,
    "m": 5019,
    "r": 5020,
    "o": 5021,
    "j": 5022,
    "f": 5023,
    "p": 5024,
    "v": 5025,
    "c": 5026,
    "y": 5027,
    "g": 5028,
    "w": 5029,
    "q": 5030,
    "'": 5031,
    "z": 5032,
    "x": 5033,
    "à": 5034,
    "é": 5035,
    "ī": 5036,
    "(": 5037,
    ")": 5038,
    ",": 5039,
    "ê": 5040,
    "?": 5041,
    "ā": 5042,
    ".": 5043,
    "’": 5044,
    "ḥ": 5045,
    "ū": 5046,
    "ṣ": 5047,
    "ẓ": 5048,
    "ṭ": 5049,
    "ý": 5050,
    "‘": 5051,
    "ñ": 5052,
    "ḍ": 5055,
    "ä": 5056,
    "ż": 5057,
    "ě": 5060,
    "è": 5061,
    "â": 5062,
    "û": 5063,
    "<": 5067,
    ">": 5068,
    "/": 5069,
    "ü": 5070,
    "ö": 5071,
    "ṡ": 5073,
    ";": 5074,
    "[": 5075,
    "]": 5076,
    "ṁ": 5078,
    "=": 5079,
    "î": 5080,
    "ô": 5081,
    "ç": 5082,
    "̄": 5083,
    "!": 5085,
    "新": 5086,
    "年": 5087,
    "快": 5088,
    "乐": 5089,
    "）": 5090,
    "an": 5091,
    "er": 5092,
    "en": 5093,
    "▁m": 5094,
    "▁p": 5095,
    "▁b": 5096,
    "▁k": 5097,
    "ar": 5098,
    "si": 5099,
    "at": 5100,
    "▁t": 5101,
    "ang": 5102,
    "ak": 5103,
    "al": 5104,
    "in": 5105,
    "▁s": 5106,
    "em": 5107,
    "el": 5108,
    "un": 5109,
    "am": 5110,
    "ah": 5111,
    "eng": 5112,
    "as": 5113,
    "ik": 5114,
    "on": 5115,
    "▁d": 5116,
    "▁ber": 5117,
    "is": 5118,
    "▁l": 5119,
    "ur": 5120,
    "et": 5121,
    "ek": 5122,
    "it": 5123,
    "▁g": 5124,
    "uk": 5125,
    "or": 5126,
    "▁men": 5127,
    "▁r": 5128,
    "ung": 5129,
    "ap": 5130,
    "ul": 5131,
    "ut": 5132,
    "ol": 5133,
    "asi": 5134,
    "▁h": 5135,
    "il": 5136,
    "ing": 5137,
    "um": 5138,
    "kan": 5139,
    "ir": 5140,
    "▁meng": 5141,
    "ad": 5142,
    "us": 5143,
    "om": 5144,
    "▁ter": 5145,
    "es": 5146,
    "ab": 5147,
    "▁j": 5148,
    "emb": 5149,
    "▁c": 5150,
    "ok": 5151,
    "im": 5152,
    "▁pen": 5153,
    "▁per": 5154,
    "ai": 5155,
    "ot": 5156,
    "ep": 5157,
    "ag": 5158,
    "ay": 5159,
    "ant": 5160,
    "▁n": 5161,
    "aw": 5162,
    "id": 5163,
    "og": 5164,
    "▁peng": 5165,
    "ong": 5166,
    "ed": 5167,
    "eb": 5168,
    "and": 5169,
    "▁mem": 5170,
    "op": 5171,
    "▁si": 5172,
    "os": 5173,
    "eg": 5174,
    "aj": 5175,
    "uh": 5176,
    "ud": 5177,
    "▁f": 5178,
    "ob": 5179,
    "ia": 5180,
    "tr": 5181,
    "up": 5182,
    "ip": 5183,
    "amb": 5184,
    "angk": 5185,
    "angan": 5186,
    "ati": 5187,
    "▁meny": 5188,
    "ent": 5189,
    "end": 5190,
    "akan": 5191,
    "aan": 5192,
    "▁in": 5193,
    "isi": 5194,
    "amp": 5195,
    "od": 5196,
    "▁w": 5197,
    "ub": 5198,
    "ara": 5199,
    "▁pr": 5200,
    "ih": 5201,
    "of": 5202,
    "▁a": 5203,
    "▁al": 5204,
    "▁ker": 5205,
    "▁mer": 5206,
    "emp": 5207,
    "▁ke": 5208,
    "au": 5209,
    "ari": 5210,
    "▁mel": 5211,
    "ib": 5212,
    "ata": 5213,
    "angg": 5214,
    "ti": 5215,
    "atan": 5216,
    "af": 5217,
    "esi": 5218,
    "▁kel": 5219,
    "▁pem": 5220,
    "▁an": 5221,
    "▁memb": 5222,
    "ac": 5223,
    "ig": 5224,
    "▁ak": 5225,
    "osi": 5226,
    "ter": 5227,
    "ahan": 5228,
    "aran": 5229,
    "▁berk": 5230,
    "ikan": 5231,
    "▁peny": 5232,
    "▁v": 5233,
    "▁ket": 5234,
    "▁mengg": 5235,
    "int": 5236,
    "olog": 5237,
    "▁pel": 5238,
    "ian": 5239,
    "▁di": 5240,
    "eks": 5241,
    "▁bers": 5242,
    "per": 5243,
    "uan": 5244,
    "▁bert": 5245,
    "▁pemb": 5246,
    "uj": 5247,
    "▁as": 5248,
    "anj": 5249,
    "ism": 5250,
    "eh": 5251,
    "▁ser": 5252,
    "▁kon": 5253,
    "engk": 5254,
    "▁ad": 5255,
    "aya": 5256,
    "▁sel": 5257,
    "oh": 5258,
    "ya": 5259,
    "asa": 5260,
    "▁menc": 5261,
    "usi": 5262,
    "▁ar": 5263,
    "▁bel": 5264,
    "▁tak": 5265,
    "ec": 5266,
    "itas": 5267,
    "isme": 5268,
    "ana": 5269,
    "alan": 5270,
    "omp": 5271,
    "eter": 5272,
    "ej": 5273,
    "ama": 5274,
    "▁ant": 5275,
    "unt": 5276,
    "umb": 5277,
    "ist": 5278,
    "ologi": 5279,
    "ala": 5280,
    "obia": 5281,
    "▁tr": 5282,
    "▁kep": 5283,
    "▁kr": 5284,
    "ump": 5285,
    "▁berp": 5286,
    "▁kar": 5287,
    "und": 5288,
    "ind": 5289,
    "isasi": 5290,
    "▁memper": 5291,
    "asan": 5292,
    "▁gel": 5293,
    "ogr": 5294,
    "anc": 5295,
    "▁mend": 5296,
    "ensi": 5297,
    "ali": 5298,
    "aman": 5299,
    "uran": 5300,
    "ukan": 5301,
    "▁bi": 5302,
    "utan": 5303,
    "engg": 5304,
    "▁pol": 5305,
    "apan": 5306,
    "adi": 5307,
    "▁air": 5308,
    "uang": 5309,
    "▁kem": 5310,
    "▁menj": 5311,
    "▁par": 5312,
    "imb": 5313,
    "ef": 5314,
    "ug": 5315,
    "▁pend": 5316,
    "▁ger": 5317,
    "▁bat": 5318,
    "-m": 5319,
    "ungan": 5320,
    "ofobia": 5321,
    "ingg": 5322,
    "-k": 5323,
    "▁bal": 5324,
    "▁or": 5325,
    "▁sin": 5326,
    "akt": 5327,
    "ew": 5328,
    "▁sep": 5329,
    "ri": 5330,
    "▁tel": 5331,
    "▁kes": 5332,
    "▁sp": 5333,
    "atif": 5334,
    "ta": 5335,
    "▁ap": 5336,
    "ingk": 5337,
    "ungk": 5338,
    "awan": 5339,
    "tif": 5340,
    "st": 5341,
    "▁sem": 5342,
    "ungg": 5343,
    "uc": 5344,
    "imp": 5345,
    "▁ab": 5346,
    "▁sek": 5347,
    "▁z": 5348,
    "if": 5349,
    "-b": 5350,
    "▁berg": 5351,
    "▁bar": 5352,
    "ain": 5353,
    "▁keb": 5354,
    "ika": 5355,
    "▁berl": 5356,
    "▁y": 5357,
    "▁berb": 5358,
    "omb": 5359,
    "ual": 5360,
    "▁pas": 5361,
    "▁eks": 5362,
    "▁tan": 5363,
    "aga": 5364,
    "ori": 5365,
    "ograf": 5366,
    "iri": 5367,
    "ont": 5368,
    "▁terb": 5369,
    "ingan": 5370,
    "▁am": 5371,
    "▁hid": 5372,
    "sa": 5373,
    "▁mas": 5374,
    "▁sal": 5375,
    "▁ag": 5376,
    "▁ters": 5377,
    "ua": 5378,
    "▁kal": 5379,
    "▁man": 5380,
    "yak": 5381,
    "ij": 5382,
    "▁ek": 5383,
    "enc": 5384,
    "▁min": 5385,
    "▁bah": 5386,
    "orm": 5387,
    "onal": 5388,
    "▁st": 5389,
    "▁ang": 5390,
    "▁sen": 5391,
    "▁berd": 5392,
    "ond": 5393,
    "eri": 5394,
    "ulan": 5395,
    "iran": 5396,
    "ng": 5397,
    "▁kap": 5398,
    "ikasi": 5399,
    "▁kec": 5400,
    "aksi": 5401,
    "itik": 5402,
    "▁at": 5403,
    "anda": 5404,
    "uhan": 5405,
    "alam": 5406,
    "ongk": 5407,
    "▁set": 5408,
    "▁penc": 5409,
    "ans": 5410,
    "ra": 5411,
    "▁kl": 5412,
    "▁put": 5413,
    "ulang": 5414,
    "ita": 5415,
    "uka": 5416,
    "▁terk": 5417,
    "▁gar": 5418,
    "▁mengh": 5419,
    "▁pengg": 5420,
    "eksi": 5421,
    "est": 5422,
    "anan": 5423,
    "▁terp": 5424,
    "▁anak": 5425,
    "ometer": 5426,
    "uru": 5427,
    "▁bak": 5428,
    "▁(": 5429,
    "ang-": 5430,
    "▁mata": 5431,
    "ic": 5432,
    "▁sur": 5433,
    "arah": 5434,
    "▁berj": 5435,
    "▁pet": 5436,
    "awa": 5437,
    "ada": 5438,
    "▁ku": 5439,
    "▁bag": 5440,
    "▁pl": 5441,
    "▁hip": 5442,
    "▁ind": 5443,
    "ina": 5444,
    "erm": 5445,
    "▁met": 5446,
    "ator": 5447,
    "▁da": 5448,
    "▁el": 5449,
    "▁pert": 5450,
    "unj": 5451,
    "▁har": 5452,
    "ahkan": 5453,
    "aut": 5454,
    "▁kek": 5455,
    "▁dis": 5456,
    "▁mul": 5457,
    "ani": 5458,
    "▁hati": 5459,
    "ofil": 5460,
    "oc": 5461,
    "▁kol": 5462,
    "▁kom": 5463,
    "▁pers": 5464,
    "▁tek": 5465,
    "▁pal": 5466,
    "▁se": 5467,
    "▁tert": 5468,
    "▁ul": 5469,
    "-s": 5470,
    "nya": 5471,
    "angkan": 5472,
    "ium": 5473,
    "unc": 5474,
    "▁kur": 5475,
    "▁tah": 5476,
    "itan": 5477,
    "uar": 5478,
    "isan": 5479,
    "▁berm": 5480,
    "▁mak": 5481,
    "▁is": 5482,
    "tik": 5483,
    "ogen": 5484,
    "aian": 5485,
    "na": 5486,
    "▁ay": 5487,
    "uku": 5488,
    "ga": 5489,
    "▁ob": 5490,
    "ula": 5491,
    "ilm": 5492,
    "▁angin": 5493,
    "▁kas": 5494,
    "▁komp": 5495,
    "ja": 5496,
    "▁penj": 5497,
    "ilan": 5498,
    "ak-": 5499,
    "▁seb": 5500,
    "▁tanah": 5501,
    "atu": 5502,
    "ekt": 5503,
    "ov": 5504,
    "eny": 5505,
    "atkan": 5506,
    "aki": 5507,
    "▁berc": 5508,
    "▁rum": 5509,
    "osis": 5510,
    "arkan": 5511,
    "tas": 5512,
    "▁kor": 5513,
    "aks": 5514,
    "▁mar": 5515,
    "omi": 5516,
    "▁temp": 5517,
    "sik": 5518,
    "oy": 5519,
    "▁op": 5520,
    "▁term": 5521,
    "atik": 5522,
    "erb": 5523,
    "itam": 5524,
    "▁neg": 5525,
    "unan": 5526,
    "ayang": 5527,
    "▁bur": 5528,
    "▁inter": 5529,
    "ram": 5530,
    "inc": 5531,
    "▁bahasa": 5532,
    "▁pan": 5533,
    "▁tangan": 5534,
    "ev": 5535,
    "▁bu": 5536,
    "ektr": 5537,
    "rop": 5538,
    "etik": 5539,
    "-g": 5540,
    "▁makan": 5541,
    "▁ud": 5542,
    "ena": 5543,
    "▁batu": 5544,
    "isis": 5545,
    "uri": 5546,
    "awat": 5547,
    "uda": 5548,
    "▁ked": 5549,
    "ografi": 5550,
    "alang": 5551,
    "akkan": 5552,
    "▁tid": 5553,
    "▁ot": 5554,
    "erg": 5555,
    "era": 5556,
    "ekan": 5557,
    "wa": 5558,
    "alu": 5559,
    "▁br": 5560,
    "▁ik": 5561,
    "▁lap": 5562,
    "▁kat": 5563,
    "▁gl": 5564,
    "▁ny": 5565,
    "▁terl": 5566,
    "ayu": 5567,
    "ola": 5568,
    "▁pat": 5569,
    "▁sil": 5570,
    "▁ikan": 5571,
    "api": 5572,
    "oid": 5573,
    "▁angk": 5574,
    "anjang": 5575,
    "eran": 5576,
    "▁perk": 5577,
    "▁bes": 5578,
    "erasi": 5579,
    "▁amb": 5580,
    "▁bad": 5581,
    "▁jer": 5582,
    "▁sed": 5583,
    "etr": 5584,
    "▁en": 5585,
    "▁mod": 5586,
    "angs": 5587,
    "aja": 5588,
    "-p": 5589,
    "li": 5590,
    "▁bul": 5591,
    "▁kab": 5592,
    "▁te": 5593,
    "▁kul": 5594,
    "▁mati": 5595,
    "▁sim": 5596,
    "oksi": 5597,
    "▁pak": 5598,
    "-t": 5599,
    "iv": 5600,
    "▁jar": 5601,
    "▁ol": 5602,
    "▁tab": 5603,
    "kl": 5604,
    "usan": 5605,
    "kr": 5606,
    "-l": 5607,
    "▁rumah": 5608,
    "▁pengh": 5609,
    "inan": 5610,
    "inj": 5611,
    "▁kh": 5612,
    "▁sar": 5613,
    "aka": 5614,
    "okan": 5615,
    "arik": 5616,
    "ase": 5617,
    "erah": 5618,
    "ikr": 5619,
    "ukum": 5620,
    "▁kot": 5621,
    "esis": 5622,
    "▁bersi": 5623,
    "▁tes": 5624,
    "▁ban": 5625,
    "▁mat": 5626,
    "▁perm": 5627,
    "▁temb": 5628,
    "ongan": 5629,
    "▁beb": 5630,
    "▁berh": 5631,
    "▁pes": 5632,
    "▁hukum": 5633,
    "▁pus": 5634,
    "▁sub": 5635,
    "▁asam": 5636,
    "▁em": 5637,
    "▁mon": 5638,
    "ert": 5639,
    "▁ayam": 5640,
    "▁bl": 5641,
    "▁gun": 5642,
    "▁minyak": 5643,
    "▁radi": 5644,
    "aji": 5645,
    "udi": 5646,
    "▁uang": 5647,
    "▁gen": 5648,
    "▁kam": 5649,
    "▁su": 5650,
    "▁ur": 5651,
    "ma": 5652,
    "▁sak": 5653,
    "▁bagai": 5654,
    "-r": 5655,
    "▁ketak": 5656,
    "▁ut": 5657,
    "▁orang": 5658,
    "aju": 5659,
    "itis": 5660,
    "engan": 5661,
    "▁lemb": 5662,
    "tur": 5663,
    "ajak": 5664,
    "awah": 5665,
    "▁ben": 5666,
    "▁kons": 5667,
    "▁sus": 5668,
    "▁war": 5669,
    "ami": 5670,
    "alisasi": 5671,
    "▁ilm": 5672,
    "▁re": 5673,
    "▁cer": 5674,
    "▁es": 5675,
    "▁jalan": 5676,
    "aik": 5677,
    "ini": 5678,
    "▁ko": 5679,
    "alah": 5680,
    "▁dr": 5681,
    "▁gr": 5682,
    "andang": 5683,
    "▁bung": 5684,
    "▁inf": 5685,
    "▁akar": 5686,
    "▁laut": 5687,
    "eli": 5688,
    "uny": 5689,
    "▁jam": 5690,
    "▁samp": 5691,
    "ili": 5692,
    "antung": 5693,
    "apa": 5694,
    "▁kac": 5695,
    "▁kata": 5696,
    "▁lay": 5697,
    "▁menger": 5698,
    "▁nasi": 5699,
    "engah": 5700,
    "▁tidak": 5701,
    "aus": 5702,
    "kop": 5703,
    "ost": 5704,
    "arat": 5705,
    "da": 5706,
    "▁lem": 5707,
    "▁mal": 5708,
    "▁um": 5709,
    "ida": 5710,
    "▁dalam": 5711,
    "ulasi": 5712,
    "▁cel": 5713,
    "▁hal": 5714,
    "▁hidr": 5715,
    "▁kop": 5716,
    "▁seg": 5717,
    "istik": 5718,
    "okr": 5719,
    "apat": 5720,
    "etak": 5721,
    "▁im": 5722,
    "▁kej": 5723,
    "alkan": 5724,
    "iang": 5725,
    "anti": 5726,
    "ersi": 5727,
    "▁fr": 5728,
    "▁putih": 5729,
    "▁sosi": 5730,
    "istr": 5731,
    "emen": 5732,
    "▁asi": 5733,
    "fer": 5734,
    "▁hari": 5735,
    "▁non": 5736,
    "▁ac": 5737,
    "etan": 5738,
    "askan": 5739,
    "▁menyel": 5740,
    "▁sy": 5741,
    "▁trans": 5742,
    "▁besar": 5743,
    "▁garis": 5744,
    "▁merah": 5745,
    "▁mus": 5746,
    "angi": 5747,
    "uy": 5748,
    "▁des": 5749,
    "▁ped": 5750,
    "ode": 5751,
    "▁ilmu": 5752,
    "▁kemb": 5753,
    "inggi": 5754,
    "▁ge": 5755,
    "▁sup": 5756,
    "▁terg": 5757,
    "osa": 5758,
    "ial": 5759,
    "onik": 5760,
    "agi": 5761,
    "▁mah": 5762,
    "▁tep": 5763,
    "resi": 5764,
    "las": 5765,
    "ela": 5766,
    "akar": 5767,
    "▁gal": 5768,
    "▁mand": 5769,
    "inasi": 5770,
    "gan": 5771,
    "▁mikr": 5772,
    "▁sk": 5773,
    "▁un": 5774,
    "isik": 5775,
    "ahi": 5776,
    "any": 5777,
    "awang": 5778,
    "▁lab": 5779,
    "▁menggel": 5780,
    "▁rek": 5781,
    "intang": 5782,
    "stem": 5783,
    "ima": 5784,
    "ongg": 5785,
    "aku": 5786,
    "av": 5787,
    "▁dep": 5788,
    "▁elektr": 5789,
    "antai": 5790,
    "▁tur": 5791,
    "ihan": 5792,
    "uksi": 5793,
    "▁leb": 5794,
    "▁pad": 5795,
    "▁spt": 5796,
    "atur": 5797,
    "▁angg": 5798,
    "▁aw": 5799,
    "▁hitam": 5800,
    "▁int": 5801,
    "▁lamp": 5802,
    "ajah": 5803,
    "▁sab": 5804,
    "ort": 5805,
    "anggung": 5806,
    "▁dan": 5807,
    "▁dem": 5808,
    "▁uj": 5809,
    "tiv": 5810,
    "ater": 5811,
    "-d": 5812,
    "ura": 5813,
    "ilang": 5814,
    "▁bunga": 5815,
    "▁keter": 5816,
    "▁terc": 5817,
    "▁bas": 5818,
    "arak": 5819,
    "han": 5820,
    "▁gunung": 5821,
    "▁ses": 5822,
    "▁sir": 5823,
    "▁terj": 5824,
    "▁ah": 5825,
    "lah": 5826,
    "oran": 5827,
    "usah": 5828,
    "angga": 5829,
    "ens": 5830,
    "▁emp": 5831,
    "▁pemer": 5832,
    "▁res": 5833,
    "▁sud": 5834,
    "▁surat": 5835,
    "edit": 5836,
    "ologis": 5837,
    "enj": 5838,
    "idah": 5839,
    "▁teb": 5840,
    "▁udara": 5841,
    "ikat": 5842,
    "entr": 5843,
    "▁dek": 5844,
    "tu": 5845,
    "iz": 5846,
    "▁api": 5847,
    "-c": 5848,
    "esin": 5849,
    "▁e": 5850,
    "ansi": 5851,
    "ujan": 5852,
    "▁mut": 5853,
    "orf": 5854,
    "▁fl": 5855,
    "▁hidup": 5856,
    "▁bant": 5857,
    "ons": 5858,
    "▁bil": 5859,
    "▁pek": 5860,
    "▁af": 5861,
    "▁bab": 5862,
    "pr": 5863,
    "tor": 5864,
    "▁and": 5865,
    "urkan": 5866,
    "▁diri": 5867,
    "▁ins": 5868,
    "▁sul": 5869,
    "awi": 5870,
    "ulu": 5871,
    "amat": 5872,
    "▁bed": 5873,
    "▁bet": 5874,
    "▁daya": 5875,
    "▁med": 5876,
    "▁sistem": 5877,
    "aca": 5878,
    "▁bang": 5879,
    "ogram": 5880,
    "▁kepala": 5881,
    "▁send": 5882,
    "ern": 5883,
    "agn": 5884,
    "ea": 5885,
    "apak": 5886,
    "▁hak": 5887,
    "az": 5888,
    "▁kayu": 5889,
    "etri": 5890,
    "▁hutan": 5891,
    "▁tar": 5892,
    "abil": 5893,
    "ira": 5894,
    "▁daun": 5895,
    "▁end": 5896,
    "▁tali": 5897,
    "▁tulang": 5898,
    "▁antar": 5899,
    "uf": 5900,
    "onc": 5901,
    "▁bus": 5902,
    "pl": 5903,
    "uman": 5904,
    "▁str": 5905,
    "▁dag": 5906,
    "iter": 5907,
    "iah": 5908,
    "▁amp": 5909,
    "ast": 5910,
    "▁ep": 5911,
    "ungkan": 5912,
    "▁mengel": 5913,
    "▁ment": 5914,
    "▁mulut": 5915,
    "▁sat": 5916,
    "▁tet": 5917,
    "▁aks": 5918,
    "una": 5919,
    "aris": 5920,
    "sir": 5921,
    "▁buku": 5922,
    "▁cek": 5923,
    "▁er": 5924,
    "▁ib": 5925,
    "awar": 5926,
    "▁keh": 5927,
    "▁kerja": 5928,
    "▁lingk": 5929,
    "▁panc": 5930,
    "▁semb": 5931,
    "entang": 5932,
    "-j": 5933,
    "oskop": 5934,
    "▁bir": 5935,
    "iw": 5936,
    "▁hujan": 5937,
    "ny": 5938,
    "▁tinggi": 5939,
    "▁tungg": 5940,
    "atis": 5941,
    "angka": 5942,
    "▁daerah": 5943,
    "▁fot": 5944,
    "▁lang": 5945,
    "▁sik": 5946,
    "▁sing": 5947,
    "alis": 5948,
    "ers": 5949,
    "itr": 5950,
    "adu": 5951,
    "oj": 5952,
    "apkan": 5953,
    "▁emb": 5954,
    "urn": 5955,
    "▁kain": 5956,
    "▁menyer": 5957,
    "▁samb": 5958,
    "▁up": 5959,
    "ora": 5960,
    "umi": 5961,
    "▁id": 5962,
    "▁lidah": 5963,
    "▁mesin": 5964,
    "▁prot": 5965,
    "▁ten": 5966,
    "ektif": 5967,
    "▁alat": 5968,
    "otan": 5969,
    "uduk": 5970,
    "▁ef": 5971,
    "▁gas": 5972,
    "▁gem": 5973,
    "▁jel": 5974,
    "▁musi": 5975,
    "▁perb": 5976,
    "uw": 5977,
    "okal": 5978,
    "▁lep": 5979,
    "▁tem": 5980,
    "▁tim": 5981,
    "▁yg": 5982,
    "upan": 5983,
    "▁aut": 5984,
    "oni": 5985,
    "eja": 5986,
    "igi": 5987,
    "▁kut": 5988,
    "▁lip": 5989,
    "▁negara": 5990,
    "▁panjang": 5991,
    "▁pasi": 5992,
    "▁ramb": 5993,
    "imat": 5994,
    "elan": 5995,
    "oda": 5996,
    "▁dip": 5997,
    "▁rak": 5998,
    "▁sosial": 5999,
    "eta": 6000,
    "art": 6001,
    "▁awan": 6002,
    "ui": 6003,
    "▁bol": 6004,
    "inta": 6005,
    "asar": 6006,
    "▁der": 6007,
    "iat": 6008,
    "▁kapal": 6009,
    "▁keg": 6010,
    "▁kaki": 6011,
    "▁muka": 6012,
    "▁sumb": 6013,
    "ajar": 6014,
    "lik": 6015,
    "▁bek": 6016,
    "ord": 6017,
    "oi": 6018,
    "uas": 6019,
    "▁ne": 6020,
    "▁pint": 6021,
    "▁sej": 6022,
    "▁tamb": 6023,
    "▁ada": 6024,
    "▁anal": 6025,
    "▁balik": 6026,
    "erang": 6027,
    "▁darah": 6028,
    "isata": 6029,
    "esan": 6030,
    "▁del": 6031,
    "▁panas": 6032,
    "▁pik": 6033,
    "▁psik": 6034,
    "▁tik": 6035,
    "eral": 6036,
    "alik": 6037,
    "▁bulan": 6038,
    "▁ka": 6039,
    "▁pangk": 6040,
    "-h": 6041,
    "ona": 6042,
    "▁baju": 6043,
    "▁beras": 6044,
    "unting": 6045,
    "auan": 6046,
    "utkan": 6047,
    "uli": 6048,
    "▁kun": 6049,
    "▁pis": 6050,
    "▁pul": 6051,
    "▁tuk": 6052,
    "ofili": 6053,
    "hir": 6054,
    "▁anj": 6055,
    "onomi": 6056,
    "epat": 6057,
    "▁but": 6058,
    "▁cac": 6059,
    "▁de": 6060,
    "aktu": 6061,
    "▁organ": 6062,
    "▁pah": 6063,
    "▁teg": 6064,
    "ow": 6065,
    "▁alam": 6066,
    "imia": 6067,
    "erk": 6068,
    "▁bawah": 6069,
    "asil": 6070,
    "▁bola": 6071,
    "▁buah": 6072,
    "ila": 6073,
    "ifikasi": 6074,
    "ayaan": 6075,
    "uhkan": 6076,
    "▁pir": 6077,
    "rom": 6078,
    "elit": 6079,
    "▁bis": 6080,
    "▁kaw": 6081,
    "▁kontr": 6082,
    "▁pot": 6083,
    "▁sw": 6084,
    "ungsi": 6085,
    "▁bend": 6086,
    "orong": 6087,
    "▁dib": 6088,
    "araan": 6089,
    "ukkan": 6090,
    "▁tamp": 6091,
    "inal": 6092,
    "igr": 6093,
    "▁dik": 6094,
    "▁maj": 6095,
    "▁ruang": 6096,
    "▁sam": 6097,
    "iga": 6098,
    "ion": 6099,
    "▁berkel": 6100,
    "antu": 6101,
    "utup": 6102,
    "▁data": 6103,
    "▁dit": 6104,
    "▁dng": 6105,
    "▁gad": 6106,
    "▁kan": 6107,
    "▁lampu": 6108,
    "amkan": 6109,
    "▁tumb": 6110,
    "ental": 6111,
    "istis": 6112,
    "ofilia": 6113,
    "ota": 6114,
    "▁atas": 6115,
    "anggang": 6116,
    "ilat": 6117,
    "▁ir": 6118,
    "▁pasar": 6119,
    "▁puk": 6120,
    "iks": 6121,
    "▁bent": 6122,
    "▁berat": 6123,
    "adah": 6124,
    "▁bid": 6125,
    "▁kend": 6126,
    "▁pand": 6127,
    "▁politik": 6128,
    "▁tanda": 6129,
    "▁bebas": 6130,
    "▁din": 6131,
    "ingin": 6132,
    "▁dua": 6133,
    "▁et": 6134,
    "▁ikl": 6135,
    "▁kota": 6136,
    "▁leg": 6137,
    "▁sah": 6138,
    "▁tub": 6139,
    "tis": 6140,
    "▁aj": 6141,
    "andar": 6142,
    "olah": 6143,
    "su": 6144,
    "air": 6145,
    "ayung": 6146,
    "asional": 6147,
    "▁ken": 6148,
    "▁kering": 6149,
    "▁kos": 6150,
    "▁mengger": 6151,
    "▁rep": 6152,
    "▁sas": 6153,
    "▁top": 6154,
    "di": 6155,
    "ambu": 6156,
    "ein": 6157,
    "ias": 6158,
    "ingkat": 6159,
    "▁dar": 6160,
    "▁kant": 6161,
    "ingkan": 6162,
    "▁prod": 6163,
    "▁rem": 6164,
    "▁barang": 6165,
    "ohon": 6166,
    "onis": 6167,
    "arian": 6168,
    "auh": 6169,
    "okok": 6170,
    "▁pant": 6171,
    "▁perc": 6172,
    "▁perg": 6173,
    "asih": 6174,
    "▁kont": 6175,
    "▁lim": 6176,
    "usuk": 6177,
    "▁perl": 6178,
    "oli": 6179,
    "▁bub": 6180,
    "arang": 6181,
    "ustr": 6182,
    "enang": 6183,
    "▁kecil": 6184,
    "▁tal": 6185,
    "ayat": 6186,
    "ark": 6187,
    "eka": 6188,
    "emia": 6189,
    "oma": 6190,
    "aru": 6191,
    "▁emas": 6192,
    "▁harga": 6193,
    "▁kamp": 6194,
    "uatan": 6195,
    "▁layar": 6196,
    "▁masa": 6197,
    "araf": 6198,
    "osisi": 6199,
    "▁simp": 6200,
    "▁tol": 6201,
    "nis": 6202,
    "entasi": 6203,
    "adang": 6204,
    "rat": 6205,
    "atal": 6206,
    "antan": 6207,
    "ayan": 6208,
    "anak": 6209,
    "elah": 6210,
    "onj": 6211,
    "ros": 6212,
    "▁cak": 6213,
    "▁hem": 6214,
    "▁luar": 6215,
    "▁tand": 6216,
    "▁alk": 6217,
    "sip": 6218,
    "ital": 6219,
    "▁hom": 6220,
    "▁kredit": 6221,
    "▁mil": 6222,
    "▁pil": 6223,
    "▁pip": 6224,
    "▁salah": 6225,
    "▁tahu": 6226,
    "▁tir": 6227,
    "▁titik": 6228,
    "▁aer": 6229,
    "uat": 6230,
    "itasi": 6231,
    "ahu": 6232,
    "urus": 6233,
    "▁besi": 6234,
    "olan": 6235,
    "lak": 6236,
    "uga": 6237,
    "por": 6238,
    "▁ekstr": 6239,
    "▁gajah": 6240,
    "angat": 6241,
    "▁hij": 6242,
    "▁inv": 6243,
    "ber": 6244,
    "▁kuda": 6245,
    "▁kunc": 6246,
    "▁perang": 6247,
    "▁pi": 6248,
    "▁waktu": 6249,
    "usia": 6250,
    "ometri": 6251,
    "otik": 6252,
    "ema": 6253,
    "osit": 6254,
    "▁imp": 6255,
    "▁karb": 6256,
    "▁meg": 6257,
    "ilai": 6258,
    "▁pajak": 6259,
    "▁perd": 6260,
    "▁sec": 6261,
    "▁seh": 6262,
    "▁sent": 6263,
    "▁sum": 6264,
    "▁sung": 6265,
    "▁terd": 6266,
    "▁abs": 6267,
    "inat": 6268,
    "▁bahan": 6269,
    "ongs": 6270,
    "lok": 6271,
    "inga": 6272,
    "▁ng": 6273,
    "▁red": 6274,
    "▁tangk": 6275,
    "▁telur": 6276,
    "iman": 6277,
    "teri": 6278,
    "▁balai": 6279,
    "akit": 6280,
    "amah": 6281,
    "andung": 6282,
    "▁dig": 6283,
    "▁form": 6284,
    "▁mengamb": 6285,
    "▁obat": 6286,
    "▁pec": 6287,
    "▁susu": 6288,
    "▁tun": 6289,
    "angkat": 6290,
    "▁bud": 6291,
    "▁gula": 6292,
    "ayah": 6293,
    "▁komun": 6294,
    "▁lemp": 6295,
    "▁mandi": 6296,
    "▁rend": 6297,
    "▁sama": 6298,
    "▁satu": 6299,
    "▁tata": 6300,
    "▁terh": 6301,
    "▁ular": 6302,
    "▁umum": 6303,
    "▁m.": 6304,
    "ban": 6305,
    "oman": 6306,
    "▁bersel": 6307,
    "▁bib": 6308,
    "▁gamb": 6309,
    "agu": 6310,
    "▁intern": 6311,
    "▁kartu": 6312,
    "▁kuc": 6313,
    "▁makanan": 6314,
    "ron": 6315,
    "▁mur": 6316,
    "▁negeri": 6317,
    "▁pasc": 6318,
    "▁tengah": 6319,
    "abat": 6320,
    "uni": 6321,
    "olong": 6322,
    "uti": 6323,
    "▁kad": 6324,
    "▁kup": 6325,
    "▁pur": 6326,
    "▁reg": 6327,
    "▁sa": 6328,
    "▁semp": 6329,
    "▁seni": 6330,
    "otrop": 6331,
    "egr": 6332,
    "ergi": 6333,
    "▁ba": 6334,
    "▁bangk": 6335,
    "ayak": 6336,
    "ukar": 6337,
    "eda": 6338,
    "▁dew": 6339,
    "sin": 6340,
    "▁juru": 6341,
    "▁kuning": 6342,
    "▁lar": 6343,
    "▁malam": 6344,
    "asikan": 6345,
    "▁mempers": 6346,
    "▁muda": 6347,
    "▁perut": 6348,
    "▁polisi": 6349,
    "▁rump": 6350,
    "▁suara": 6351,
    "▁ta": 6352,
    "▁teater": 6353,
    "▁tengg": 6354,
    "▁ub": 6355,
    "▁adat": 6356,
    "rot": 6357,
    "-n": 6358,
    "asis": 6359,
    "let": 6360,
    "imer": 6361,
    "▁bor": 6362,
    "▁bumi": 6363,
    "▁dok": 6364,
    "uter": 6365,
    "▁kamb": 6366,
    "erd": 6367,
    "▁keluar": 6368,
    "▁kulit": 6369,
    "▁langk": 6370,
    "▁perp": 6371,
    "▁tas": 6372,
    "min": 6373,
    "obi": 6374,
    "olek": 6375,
    "▁burung": 6376,
    "tar": 6377,
    "▁def": 6378,
    "▁drama": 6379,
    "▁fil": 6380,
    "ilir": 6381,
    "endak": 6382,
    "▁jal": 6383,
    "▁kub": 6384,
    "▁li": 6385,
    "▁nom": 6386,
    "▁padi": 6387,
    "▁peg": 6388,
    "▁pendek": 6389,
    "▁pos": 6390,
    "▁rel": 6391,
    "▁sudah": 6392,
    "iti": 6393,
    "asia": 6394,
    "uv": 6395,
    "me": 6396,
    "▁badan": 6397,
    "▁bay": 6398,
    "erl": 6399,
    "endang": 6400,
    "ukur": 6401,
    "ulis": 6402,
    "ean": 6403,
    "untung": 6404,
    "ilasi": 6405,
    "nik": 6406,
    "▁hab": 6407,
    "tra": 6408,
    "▁konv": 6409,
    "▁lok": 6410,
    "▁mis": 6411,
    "▁papan": 6412,
    "▁say": 6413,
    "ran": 6414,
    "akat": 6415,
    "agar": 6416,
    "igasi": 6417,
    "uci": 6418,
    "oti": 6419,
    "▁induk": 6420,
    "erv": 6421,
    "atihan": 6422,
    "▁log": 6423,
    "ulkan": 6424,
    "▁mew": 6425,
    "▁penger": 6426,
    "▁ref": 6427,
    "▁arus": 6428,
    "amin": 6429,
    "▁dat": 6430,
    "uit": 6431,
    "rik": 6432,
    "uler": 6433,
    "iring": 6434,
    "ekat": 6435,
    "▁lint": 6436,
    "aba": 6437,
    "▁peta": 6438,
    "▁pintu": 6439,
    "▁tok": 6440,
    "▁us": 6441,
    "▁wisata": 6442,
    "oz": 6443,
    "anting": 6444,
    "etah": 6445,
    "istrik": 6446,
    "angkar": 6447,
    "otor": 6448,
    "unyi": 6449,
    "▁dasar": 6450,
    "enter": 6451,
    "▁gerak": 6452,
    "▁il": 6453,
    "▁kond": 6454,
    "▁lun": 6455,
    "▁mengk": 6456,
    "▁reb": 6457,
    "▁sid": 6458,
    "▁tip": 6459,
    "▁und": 6460,
    "tivitas": 6461,
    "adan": 6462,
    "▁ahli": 6463,
    "aktif": 6464,
    "▁berker": 6465,
    "imbang": 6466,
    "sil": 6467,
    "▁deb": 6468,
    "▁jag": 6469,
    "▁lel": 6470,
    "▁lengk": 6471,
    "▁modal": 6472,
    "▁ok": 6473,
    "idikan": 6474,
    "▁pohon": 6475,
    "▁pros": 6476,
    "▁serb": 6477,
    "▁tekanan": 6478,
    "abilitas": 6479,
    "▁akal": 6480,
    "▁band": 6481,
    "▁bank": 6482,
    "▁basah": 6483,
    "akang": 6484,
    "antang": 6485,
    "yarak": 6486,
    "alin": 6487,
    "enda": 6488,
    "▁camp": 6489,
    "▁cap": 6490,
    "oa": 6491,
    "▁fit": 6492,
    "▁gaya": 6493,
    "ombang": 6494,
    "▁gur": 6495,
    "kah": 6496,
    "▁masuk": 6497,
    "obil": 6498,
    "▁penyel": 6499,
    "▁tahan": 6500,
    "▁teori": 6501,
    "▁tua": 6502,
    "▁analisis": 6503,
    "lam": 6504,
    "mat": 6505,
    "▁bintang": 6506,
    "antik": 6507,
    "▁bulu": 6508,
    "▁dana": 6509,
    "▁disk": 6510,
    "▁dom": 6511,
    "ular": 6512,
    "ensial": 6513,
    "▁jat": 6514,
    "▁kena": 6515,
    "enan": 6516,
    "▁kok": 6517,
    "▁lamb": 6518,
    "▁lat": 6519,
    "eor": 6520,
    "▁mad": 6521,
    "▁memp": 6522,
    "▁pusat": 6523,
    "▁rad": 6524,
    "upa": 6525,
    "▁sap": 6526,
    "▁telinga": 6527,
    "▁ti": 6528,
    "iak": 6529,
    "oplas": 6530,
    "ulus": 6531,
    "aktor": 6532,
    "▁buk": 6533,
    "fikasi": 6534,
    "▁dim": 6535,
    "edi": 6536,
    "▁hijau": 6537,
    "▁jah": 6538,
    "▁kacang": 6539,
    "▁kelas": 6540,
    "▁manaj": 6541,
    "ei": 6542,
    "▁memer": 6543,
    "▁mult": 6544,
    "ormasi": 6545,
    "▁pang": 6546,
    "▁utama": 6547,
    "▁x": 6548,
    "esia": 6549,
    "abol": 6550,
    "uma": 6551,
    "onom": 6552,
    "la": 6553,
    "▁garam": 6554,
    "▁gul": 6555,
    "otel": 6556,
    "▁keras": 6557,
    "▁let": 6558,
    "abu": 6559,
    "▁naik": 6560,
    "▁nama": 6561,
    "itamin": 6562,
    "▁raja": 6563,
    "▁sind": 6564,
    "▁terbang": 6565,
    "▁terbuka": 6566,
    "le": 6567,
    "rek": 6568,
    "uah": 6569,
    "osfer": 6570,
    "urat": 6571,
    "▁bengk": 6572,
    "amar": 6573,
    "unia": 6574,
    "▁efek": 6575,
    "rak": 6576,
    "iling": 6577,
    "▁gol": 6578,
    "▁hub": 6579,
    "rah": 6580,
    "▁kembang": 6581,
    "▁lit": 6582,
    "▁sip": 6583,
    "▁tari": 6584,
    "▁wal": 6585,
    "▁agr": 6586,
    "itu": 6587,
    "elat": 6588,
    "adak": 6589,
    "alisme": 6590,
    "▁cah": 6591,
    "leks": 6592,
    "▁ged": 6593,
    "▁hendak": 6594,
    "▁ing": 6595,
    "▁kertas": 6596,
    "▁kin": 6597,
    "idi": 6598,
    "▁latihan": 6599,
    "▁le": 6600,
    "▁lengan": 6601,
    "▁lub": 6602,
    "itkan": 6603,
    "▁mengal": 6604,
    "▁mi": 6605,
    "▁mor": 6606,
    "ukaan": 6607,
    "▁tunggal": 6608,
    "usaha": 6609,
    "pa": 6610,
    "tern": 6611,
    "▁angka": 6612,
    "intah": 6613,
    "▁batang": 6614,
    "▁cengk": 6615,
    "▁dir": 6616,
    "▁ekor": 6617,
    "ibr": 6618,
    "▁gigi": 6619,
    "eum": 6620,
    "uruf": 6621,
    "▁imun": 6622,
    "uktur": 6623,
    "▁intr": 6624,
    "▁kerah": 6625,
    "omat": 6626,
    "▁langit": 6627,
    "▁manis": 6628,
    "▁mengin": 6629,
    "▁mes": 6630,
    "▁ov": 6631,
    "▁pep": 6632,
    "▁putus": 6633,
    "▁salat": 6634,
    "▁tangg": 6635,
    "▁warna": 6636,
    "jek": 6637,
    "aid": 6638,
    "abel": 6639,
    "uak": 6640,
    "abah": 6641,
    "osan": 6642,
    "unjuk": 6643,
    "▁cab": 6644,
    "engar": 6645,
    "▁cur": 6646,
    "▁dapat": 6647,
    "enggang": 6648,
    "▁film": 6649,
    "ust": 6650,
    "▁gag": 6651,
    "asian": 6652,
    "▁listrik": 6653,
    "▁magn": 6654,
    "▁meja": 6655,
    "okkan": 6656,
    "▁mempert": 6657,
    "▁seks": 6658,
    "▁tump": 6659,
    "res": 6660,
    "va": 6661,
    "▁bergel": 6662,
    "erak": 6663,
    "ras": 6664,
    "▁dada": 6665,
    "▁danau": 6666,
    "awai": 6667,
    "▁energi": 6668,
    "▁huruf": 6669,
    "▁jen": 6670,
    "▁kak": 6671,
    "atian": 6672,
    "yah": 6673,
    "uangan": 6674,
    "▁la": 6675,
    "▁lemak": 6676,
    "ilin": 6677,
    "▁nasional": 6678,
    "▁peri": 6679,
    "▁ret": 6680,
    "▁zo": 6681,
    "▁akt": 6682,
    "etis": 6683,
    "aling": 6684,
    "anja": 6685,
    "agam": 6686,
    "▁berita": 6687,
    "eling": 6688,
    "unda": 6689,
    "▁bin": 6690,
    "▁buj": 6691,
    "▁cetak": 6692,
    "kat": 6693,
    "aring": 6694,
    "alitas": 6695,
    "▁gelombang": 6696,
    "▁gemb": 6697,
    "onan": 6698,
    "▁heter": 6699,
    "▁iklim": 6700,
    "▁jend": 6701,
    "▁lapangan": 6702,
    "▁membel": 6703,
    "egang": 6704,
    "▁mencari": 6705,
    "▁panggung": 6706,
    "▁part": 6707,
    "▁pin": 6708,
    "▁pingg": 6709,
    "▁por": 6710,
    "▁q": 6711,
    "▁rangk": 6712,
    "▁tap": 6713,
    "▁timb": 6714,
    "ha": 6715,
    "ektor": 6716,
    "ompok": 6717,
    "uai": 6718,
    "yarakat": 6719,
    "alak": 6720,
    "awak": 6721,
    "▁biru": 6722,
    "▁dw": 6723,
    "sing": 6724,
    "▁hilang": 6725,
    "▁hiper": 6726,
    "umbang": 6727,
    "▁lak": 6728,
    "▁lalu": 6729,
    "▁membuang": 6730,
    "▁nir": 6731,
    "▁rah": 6732,
    "▁suk": 6733,
    "▁usaha": 6734,
    "▁sp.": 6735,
    "osin": 6736,
    "umin": 6737,
    "▁asp": 6738,
    "erat": 6739,
    "inding": 6740,
    "▁biaya": 6741,
    "▁cat": 6742,
    "▁eksp": 6743,
    "usa": 6744,
    "se": 6745,
    "oan": 6746,
    "▁kamar": 6747,
    "eo": 6748,
    "▁kimia": 6749,
    "▁kucing": 6750,
    "▁kunci": 6751,
    "▁ma": 6752,
    "▁memperl": 6753,
    "▁rumput": 6754,
    "uhu": 6755,
    "oter": 6756,
    "emi": 6757,
    "▁akhir": 6758,
    "omorf": 6759,
    "uitas": 6760,
    "apur": 6761,
    "ondong": 6762,
    "abung": 6763,
    "mi": 6764,
    "emat": 6765,
    "▁cemp": 6766,
    "arm": 6767,
    "▁dunia": 6768,
    "▁ekonomi": 6769,
    "▁fungsi": 6770,
    "usahaan": 6771,
    "▁kereta": 6772,
    "▁kew": 6773,
    "fat": 6774,
    "▁kil": 6775,
    "▁mens": 6776,
    "▁nilai": 6777,
    "▁pendidikan": 6778,
    "▁penyakit": 6779,
    "▁sint": 6780,
    "▁sol": 6781,
    "▁dil": 6782,
    "iksi": 6783,
    "itif": 6784,
    "ret": 6785,
    "▁anjing": 6786,
    "erja": 6787,
    "▁belakang": 6788,
    "ofon": 6789,
    "atin": 6790,
    "ubung": 6791,
    "▁daging": 6792,
    "▁den": 6793,
    "▁duduk": 6794,
    "▁ganda": 6795,
    "▁harta": 6796,
    "▁jual": 6797,
    "▁mac": 6798,
    "▁mant": 6799,
    "ikkan": 6800,
    "yat": 6801,
    "amu": 6802,
    "▁olah": 6803,
    "▁pener": 6804,
    "▁pengaw": 6805,
    "▁pesawat": 6806,
    "▁pikiran": 6807,
    "▁pu": 6808,
    "▁sepatu": 6809,
    "▁sungai": 6810,
    "▁tangga": 6811,
    "▁ump": 6812,
    "antar": 6813,
    "rof": 6814,
    "onim": 6815,
    "▁bungk": 6816,
    "▁buta": 6817,
    "oba": 6818,
    "▁cok": 6819,
    "kal": 6820,
    "abuk": 6821,
    "▁ed": 6822,
    "▁fon": 6823,
    "▁gent": 6824,
    "▁jaringan": 6825,
    "▁jauh": 6826,
    "▁kasus": 6827,
    "▁kuku": 6828,
    "▁lek": 6829,
    "irkan": 6830,
    "▁mener": 6831,
    "▁mobil": 6832,
    "▁perw": 6833,
    "▁sekolah": 6834,
    "▁taj": 6835,
    "▁tiga": 6836,
    "▁umb": 6837,
    "▁vis": 6838,
    "olisis": 6839,
    "ni": 6840,
    "epsi": 6841,
    "▁babi": 6842,
    "▁benang": 6843,
    "ocok": 6844,
    "estasi": 6845,
    "oto": 6846,
    "▁cahaya": 6847,
    "▁cal": 6848,
    "abi": 6849,
    "krip": 6850,
    "anas": 6851,
    "asah": 6852,
    "lang": 6853,
    "▁jangan": 6854,
    "▁ji": 6855,
    "ohan": 6856,
    "▁land": 6857,
    "▁les": 6858,
    "▁limb": 6859,
    "▁main": 6860,
    "▁masyarakat": 6861,
    "ahari": 6862,
    "olok": 6863,
    "udah": 6864,
    "▁otot": 6865,
    "▁pasir": 6866,
    "▁pengin": 6867,
    "▁plas": 6868,
    "▁produk": 6869,
    "▁ram": 6870,
    "▁rendah": 6871,
    "▁sand": 6872,
    "-men": 6873,
    "▁tahun": 6874,
    "▁tengk": 6875,
    "▁u": 6876,
    "▁vitamin": 6877,
    "ro": 6878,
    "erai": 6879,
    "erc": 6880,
    "urut": 6881,
    "ubah": 6882,
    "iku": 6883,
    "▁bunt": 6884,
    "▁dah": 6885,
    "ka": 6886,
    "idik": 6887,
    "▁dingin": 6888,
    "otong": 6889,
    "odok": 6890,
    "▁hidung": 6891,
    "ustri": 6892,
    "▁jatuh": 6893,
    "aban": 6894,
    "imbangan": 6895,
    "tim": 6896,
    "▁kus": 6897,
    "eki": 6898,
    "▁musim": 6899,
    "▁nas": 6900,
    "▁pac": 6901,
    "▁perahu": 6902,
    "▁pulang": 6903,
    "▁resi": 6904,
    "▁sad": 6905,
    "▁ster": 6906,
    "▁sump": 6907,
    "▁ujung": 6908,
    "▁vir": 6909,
    "▁amf": 6910,
    "olit": 6911,
    "mp": 6912,
    "oka": 6913,
    "ebar": 6914,
    "ering": 6915,
    "bah": 6916,
    "undang": 6917,
    "ony": 6918,
    "▁budi": 6919,
    "ilik": 6920,
    "oreng": 6921,
    "▁cu": 6922,
    "▁diag": 6923,
    "elas": 6924,
    "ayar": 6925,
    "▁gend": 6926,
    "alat": 6927,
    "▁i": 6928,
    "ilah": 6929,
    "likasi": 6930,
    "▁komputer": 6931,
    "▁krim": 6932,
    "udung": 6933,
    "▁kum": 6934,
    "▁langkah": 6935,
    "▁langs": 6936,
    "ikul": 6937,
    "▁member": 6938,
    "uskan": 6939,
    "▁memf": 6940,
    "▁os": 6941,
    "▁radio": 6942,
    "▁sakit": 6943,
    "▁serat": 6944,
    "▁sit": 6945,
    "▁udang": 6946,
    "▁s.": 6947,
    "emik": 6948,
    "abar": 6949,
    "ton": 6950,
    "abak": 6951,
    "acak": 6952,
    "epak": 6953,
    "ogenesis": 6954,
    "ank": 6955,
    "amik": 6956,
    "ade": 6957,
    "▁gand": 6958,
    "▁ibu": 6959,
    "▁industri": 6960,
    "▁jari": 6961,
    "bau": 6962,
    "▁kit": 6963,
    "ambat": 6964,
    "unkan": 6965,
    "ihkan": 6966,
    "alas": 6967,
    "▁muk": 6968,
    "▁oksi": 6969,
    "▁om": 6970,
    "▁pengad": 6971,
    "▁pid": 6972,
    "▁prop": 6973,
    "▁pungg": 6974,
    "▁seng": 6975,
    "▁stasi": 6976,
    "▁tenaga": 6977,
    "▁turun": 6978,
    "▁uji": 6979,
    "asit": 6980,
    "▁agen": 6981,
    "idr": 6982,
    "ulat": 6983,
    "uransi": 6984,
    "olusi": 6985,
    "▁bambu": 6986,
    "▁baru": 6987,
    "▁belang": 6988,
    "re": 6989,
    "amen": 6990,
    "awanan": 6991,
    "ontr": 6992,
    "unjung": 6993,
    "▁bern": 6994,
    "aftar": 6995,
    "▁geg": 6996,
    "izi": 6997,
    "▁hipot": 6998,
    "truksi": 6999,
    "▁jadi": 7000,
    "ajaran": 7001,
    "▁jiwa": 7002,
    "▁kir": 7003,
    "asak": 7004,
    "▁lah": 7005,
    "▁lepas": 7006,
    "▁matahari": 7007,
    "▁meneb": 7008,
    "▁naf": 7009,
    "▁of": 7010,
    "▁patah": 7011,
    "uluh": 7012,
    "▁pram": 7013,
    "▁rambut": 7014,
    "▁sikl": 7015,
    "efisi": 7016,
    "▁tukang": 7017,
    "▁mengambil": 7018,
    "ilitas": 7019,
    "eur": 7020,
    "ancang": 7021,
    "▁aset": 7022,
    "elang": 7023,
    "encana": 7024,
    "ambang": 7025,
    "ulung": 7026,
    "▁bertel": 7027,
    "▁bob": 7028,
    "▁cend": 7029,
    "▁desa": 7030,
    "▁det": 7031,
    "▁duk": 7032,
    "▁dur": 7033,
    "ard": 7034,
    "▁ent": 7035,
    "ofit": 7036,
    "ogn": 7037,
    "osok": 7038,
    "anah": 7039,
    "▁hantu": 7040,
    "ang-k": 7041,
    "upuk": 7042,
    "▁kode": 7043,
    "▁konf": 7044,
    "▁kopi": 7045,
    "▁lut": 7046,
    "▁metode": 7047,
    "arap": 7048,
    "▁nik": 7049,
    "▁peris": 7050,
    "▁perj": 7051,
    "▁perusahaan": 7052,
    "▁pita": 7053,
    "▁pop": 7054,
    "▁puc": 7055,
    "▁sangg": 7056,
    "▁sengk": 7057,
    "vis": 7058,
    "▁sor": 7059,
    "▁tot": 7060,
    "▁akan": 7061,
    "▁tingkat": 7062,
    "▁meteor": 7063,
    "ren": 7064,
    "to": 7065,
    "ambung": 7066,
    "ogenik": 7067,
    "he": 7068,
    "omatik": 7069,
    "arung": 7070,
    "▁baik": 7071,
    "▁baku": 7072,
    "akr": 7073,
    "umen": 7074,
    "▁bij": 7075,
    "ko": 7076,
    "▁budaya": 7077,
    "uki": 7078,
    "▁ev": 7079,
    "▁geb": 7080,
    "▁gelap": 7081,
    "adat": 7082,
    "okrasi": 7083,
    "▁ist": 7084,
    "▁jantung": 7085,
    "▁kanc": 7086,
    "esa": 7087,
    "▁krist": 7088,
    "▁lam": 7089,
    "▁lunak": 7090,
    "arakan": 7091,
    "▁mengemb": 7092,
    "▁musik": 7093,
    "▁obl": 7094,
    "▁pengel": 7095,
    "▁pengemb": 7096,
    "▁penyer": 7097,
    "▁program": 7098,
    "▁senj": 7099,
    "▁silang": 7100,
    "▁taks": 7101,
    "▁tubuh": 7102,
    "▁tut": 7103,
    "p.": 7104,
    "egan": 7105,
    "▁akr": 7106,
    "ept": 7107,
    "elai": 7108,
    "▁alas": 7109,
    "arg": 7110,
    "osp": 7111,
    "olitik": 7112,
    "isip": 7113,
    "erit": 7114,
    "orium": 7115,
    "etika": 7116,
    "▁baj": 7117,
    "ester": 7118,
    "oks": 7119,
    "▁bon": 7120,
    "▁dagang": 7121,
    "▁gizi": 7122,
    "▁hubungan": 7123,
    "ez": 7124,
    "▁jep": 7125,
    "▁kesi": 7126,
    "▁ki": 7127,
    "ikir": 7128,
    "ancar": 7129,
    "ihat": 7130,
    "▁lingkungan": 7131,
    "-ng": 7132,
    "▁pap": 7133,
    "▁rap": 7134,
    "▁rok": 7135,
    "▁sampai": 7136,
    "▁sew": 7137,
    "▁taman": 7138,
    "▁teh": 7139,
    "▁umur": 7140,
    "▁verb": 7141,
    "▁krn": 7142,
    "ino": 7143,
    "agan": 7144,
    "tig": 7145,
    "ongsong": 7146,
    "umat": 7147,
    "ulut": 7148,
    "ju": 7149,
    "uji": 7150,
    "▁cem": 7151,
    "▁dol": 7152,
    "▁gantung": 7153,
    "odin": 7154,
    "oris": 7155,
    "▁hotel": 7156,
    "▁jamb": 7157,
    "▁jamur": 7158,
    "anji": 7159,
    "▁kabut": 7160,
    "▁kawin": 7161,
    "▁keluarga": 7162,
    "▁keny": 7163,
    "▁kerbau": 7164,
    "▁lain": 7165,
    "▁lari": 7166,
    "▁melep": 7167,
    "▁memperk": 7168,
    "▁menak": 7169,
    "▁militer": 7170,
    "▁operasi": 7171,
    "▁padang": 7172,
    "▁pantai": 7173,
    "men": 7174,
    "▁plan": 7175,
    "▁raya": 7176,
    "▁rev": 7177,
    "▁ringan": 7178,
    "▁stasiun": 7179,
    "▁suhu": 7180,
    "▁tern": 7181,
    "▁tiang": 7182,
    "▁trop": 7183,
    "▁tug": 7184,
    "▁uk": 7185,
    "▁mag": 7186,
    "arut": 7187,
    "lasi": 7188,
    "olis": 7189,
    "ogl": 7190,
    "▁aksara": 7191,
    "fa": 7192,
    "ato": 7193,
    "sia": 7194,
    "▁astr": 7195,
    "▁barat": 7196,
    "olak": 7197,
    "rang": 7198,
    "ayap": 7199,
    "engkan": 7200,
    "epatan": 7201,
    "atang": 7202,
    "alog": 7203,
    "▁div": 7204,
    "omba": 7205,
    "osentr": 7206,
    "▁gam": 7207,
    "entar": 7208,
    "▁kalimat": 7209,
    "▁kenc": 7210,
    "apu": 7211,
    "usus": 7212,
    "awas": 7213,
    "▁leh": 7214,
    "aram": 7215,
    "ecah": 7216,
    "eti": 7217,
    "oleh": 7218,
    "ombak": 7219,
    "▁pangan": 7220,
    "▁pangkal": 7221,
    "▁pasang": 7222,
    "▁primer": 7223,
    "▁radiasi": 7224,
    "▁saham": 7225,
    "▁sawah": 7226,
    "▁tetap": 7227,
    "▁tikus": 7228,
    "▁tind": 7229,
    "▁tor": 7230,
    "▁ulang": 7231,
    "▁ver": 7232,
    "▁wayang": 7233,
    "▁zat": 7234,
    "▁aksi": 7235,
    "imeter": 7236,
    "onium": 7237,
    "otip": 7238,
    "oterm": 7239,
    "▁bentuk": 7240,
    "ulur": 7241,
    "ampang": 7242,
    "ipan": 7243,
    "utr": 7244,
    "inggal": 7245,
    "▁cangk": 7246,
    "▁daftar": 7247,
    "ipt": 7248,
    "eku": 7249,
    "▁ga": 7250,
    "asin": 7251,
    "▁hi": 7252,
    "ikal": 7253,
    "▁ij": 7254,
    "▁indeks": 7255,
    "▁jarum": 7256,
    "▁jej": 7257,
    "urung": 7258,
    "arau": 7259,
    "nas": 7260,
    "▁kurang": 7261,
    "atih": 7262,
    "▁len": 7263,
    "anis": 7264,
    "▁menel": 7265,
    "▁menjel": 7266,
    "▁morf": 7267,
    "oga": 7268,
    "▁polis": 7269,
    "▁pub": 7270,
    "▁roti": 7271,
    "▁sant": 7272,
    "▁tabung": 7273,
    "efisien": 7274,
    "▁terapi": 7275,
    "▁tidur": 7276,
    "▁tongk": 7277,
    "▁wil": 7278,
    "▁informasi": 7279,
    "rit": 7280,
    "angkit": 7281,
    "bar": 7282,
    "▁antik": 7283,
    "a-": 7284,
    "ecak": 7285,
    "▁beg": 7286,
    "obok": 7287,
    "ampung": 7288,
    "amba": 7289,
    "aruh": 7290,
    "▁bilangan": 7291,
    "▁cand": 7292,
    "▁dayak": 7293,
    "endam": 7294,
    "zim": 7295,
    "▁faktor": 7296,
    "emis": 7297,
    "apai": 7298,
    "▁had": 7299,
    "▁hulu": 7300,
    "ainan": 7301,
    "tian": 7302,
    "▁klor": 7303,
    "▁kue": 7304,
    "▁leher": 7305,
    "▁lent": 7306,
    "oyang": 7307,
    "bi": 7308,
    "▁otak": 7309,
    "▁pandang": 7310,
    "▁pembel": 7311,
    "▁perh": 7312,
    "▁permukaan": 7313,
    "▁sang": 7314,
    "ibu": 7315,
    "▁sumber": 7316,
    "▁tekn": 7317,
    "▁menjadi": 7318,
    "k.": 7319,
    "▁ded": 7320,
    "inya": 7321,
    "esif": 7322,
    "eman": 7323,
    "utu": 7324,
    "omatis": 7325,
    "▁anc": 7326,
    "ruk": 7327,
    "▁antrop": 7328,
    "▁anuitas": 7329,
    "opl": 7330,
    "wah": 7331,
    "ibusi": 7332,
    "ult": 7333,
    "▁awal": 7334,
    "umbu": 7335,
    "ereng": 7336,
    "ait": 7337,
    "ebat": 7338,
    "oik": 7339,
    "▁boleh": 7340,
    "▁bulat": 7341,
    "agak": 7342,
    "▁cepat": 7343,
    "ermin": 7344,
    "▁cinc": 7345,
    "isin": 7346,
    "elektr": 7347,
    "▁diet": 7348,
    "iris": 7349,
    "o-": 7350,
    "yar": 7351,
    "isah": 7352,
    "imau": 7353,
    "edia": 7354,
    "▁ink": 7355,
    "▁kantong": 7356,
    "▁karang": 7357,
    "▁karbon": 7358,
    "eni": 7359,
    "▁kemp": 7360,
    "▁memas": 7361,
    "▁membawa": 7362,
    "▁menarik": 7363,
    "▁menget": 7364,
    "form": 7365,
    "raga": 7366,
    "kes": 7367,
    "▁pale": 7368,
    "▁pej": 7369,
    "▁pent": 7370,
    "▁penuh": 7371,
    "tiwa": 7372,
    "▁pisang": 7373,
    "imba": 7374,
    "▁sengg": 7375,
    "▁telep": 7376,
    "▁tepung": 7377,
    "▁tul": 7378,
    "atas": 7379,
    "ektomi": 7380,
    "afobia": 7381,
    "aib": 7382,
    "sis": 7383,
    "ker": 7384,
    "kir": 7385,
    "▁av": 7386,
    "alih": 7387,
    "amping": 7388,
    "abatan": 7389,
    "apatan": 7390,
    "udara": 7391,
    "abur": 7392,
    "▁bot": 7393,
    "itra": 7394,
    "oner": 7395,
    "▁digital": 7396,
    "onisme": 7397,
    "▁for": 7398,
    "arium": 7399,
    "▁juga": 7400,
    "enik": 7401,
    "uban": 7402,
    "▁khusus": 7403,
    "▁konst": 7404,
    "▁krom": 7405,
    "▁langsung": 7406,
    "▁las": 7407,
    "▁lin": 7408,
    "▁lintas": 7409,
    "▁lokal": 7410,
    "ompat": 7411,
    "▁lump": 7412,
    "▁meneg": 7413,
    "▁mengad": 7414,
    "ling": 7415,
    "uruk": 7416,
    "▁saraf": 7417,
    "▁sastra": 7418,
    "▁senjata": 7419,
    "▁sun": 7420,
    "▁ungg": 7421,
    "▁utang": 7422,
    "udu": 7423,
    "-meny": 7424,
    "orp": 7425,
    "fobia": 7426,
    "▁aktif": 7427,
    "▁alih": 7428,
    "orasi": 7429,
    "anjung": 7430,
    "▁arang": 7431,
    "anduk": 7432,
    "awaan": 7433,
    "awal": 7434,
    "alian": 7435,
    "akal": 7436,
    "ucut": 7437,
    "ajat": 7438,
    "alaman": 7439,
    "▁berper": 7440,
    "angkap": 7441,
    "arb": 7442,
    "▁buluh": 7443,
    "airan": 7444,
    "war": 7445,
    "irit": 7446,
    "▁cuaca": 7447,
    "▁dad": 7448,
    "mal": 7449,
    "elar": 7450,
    "inis": 7451,
    "▁hasil": 7452,
    "▁inst": 7453,
    "▁isi": 7454,
    "ais": 7455,
    "▁jur": 7456,
    "▁kambing": 7457,
    "ayakan": 7458,
    "▁kelompok": 7459,
    "▁komunikasi": 7460,
    "▁kosm": 7461,
    "▁kumbang": 7462,
    "▁kursi": 7463,
    "▁leng": 7464,
    "▁lib": 7465,
    "▁lingkar": 7466,
    "▁ling": 7467,
    "▁masak": 7468,
    "▁massa": 7469,
    "▁mengas": 7470,
    "▁mengep": 7471,
    "▁menjer": 7472,
    "ikit": 7473,
    "upai": 7474,
    "ajib": 7475,
    "▁nap": 7476,
    "▁ner": 7477,
    "▁neur": 7478,
    "▁ni": 7479,
    "▁pember": 7480,
    "▁pidana": 7481,
    "▁pisau": 7482,
    "▁pokok": 7483,
    "▁pun": 7484,
    "▁ras": 7485,
    "▁rasa": 7486,
    "▁retr": 7487,
    "odi": 7488,
    "▁sindrom": 7489,
    "▁struktur": 7490,
    "▁super": 7491,
    "▁tahi": 7492,
    "▁tarik": 7493,
    "▁tembak": 7494,
    "▁tempat": 7495,
    "▁tent": 7496,
    "▁timur": 7497,
    "▁tolak": 7498,
    "bg": 7499,
    "pd": 7500,
    "orb": 7501,
    "lat": 7502,
    "oksin": 7503,
    "ultur": 7504,
    "▁alb": 7505,
    "okimia": 7506,
    "wan": 7507,
    "angkal": 7508,
    "sur": 7509,
    "▁ark": 7510,
    "sit": 7511,
    "u-": 7512,
    "ullah": 7513,
    "otasi": 7514,
    "▁belah": 7515,
    "▁beng": 7516,
    "encang": 7517,
    "embung": 7518,
    "opak": 7519,
    "pir": 7520,
    "aput": 7521,
    "▁bersih": 7522,
    "ungkup": 7523,
    "▁bibir": 7524,
    "▁cacing": 7525,
    "▁diagram": 7526,
    "aktur": 7527,
    "ista": 7528,
    "▁fisik": 7529,
    "ang-g": 7530,
    "▁gambar": 7531,
    "itar": 7532,
    "▁gluk": 7533,
    "▁habis": 7534,
    "▁hilir": 7535,
    "olo": 7536,
    "uz": 7537,
    "▁jeruk": 7538,
    "▁kanan": 7539,
    "▁kand": 7540,
    "ualitas": 7541,
    "asaan": 7542,
    "▁kip": 7543,
    "sus": 7544,
    "▁lubang": 7545,
    "▁lum": 7546,
    "▁mana": 7547,
    "▁mekan": 7548,
    "▁memat": 7549,
    "▁objek": 7550,
    "▁olahraga": 7551,
    "andai": 7552,
    "▁punggung": 7553,
    "▁rakyat": 7554,
    "▁sajak": 7555,
    "▁sirih": 7556,
    "▁tend": 7557,
    "▁ultr": 7558,
    "▁zaman": 7559,
    "andingan": 7560,
    "▁koefisien": 7561,
    "ministr": 7562,
    "obik": 7563,
    "orit": 7564,
    "lek": 7565,
    "asm": 7566,
    "isk": 7567,
    "▁atap": 7568,
    "▁banj": 7569,
    "angsang": 7570,
    "amuk": 7571,
    "oyak": 7572,
    "ompet": 7573,
    "epas": 7574,
    "▁berser": 7575,
    "lap": 7576,
    "▁bongk": 7577,
    "ampak": 7578,
    "▁dapur": 7579,
    "▁demam": 7580,
    "antara": 7581,
    "▁dor": 7582,
    "okl": 7583,
    "alai": 7584,
    "▁gila": 7585,
    "▁gir": 7586,
    "▁graf": 7587,
    "eal": 7588,
    "▁jemb": 7589,
    "▁kaca": 7590,
    "▁kebud": 7591,
    "▁kekuatan": 7592,
    "▁kelapa": 7593,
    "amaan": 7594,
    "rol": 7595,
    "▁kotak": 7596,
    "▁labu": 7597,
    "▁laju": 7598,
    "▁lanj": 7599,
    "▁lant": 7600,
    "▁lutut": 7601,
    "▁manusia": 7602,
    "isikan": 7603,
    "▁mengec": 7604,
    "ugi": 7605,
    "▁metabol": 7606,
    "ormal": 7607,
    "▁nuk": 7608,
    "▁obligasi": 7609,
    "▁pam": 7610,
    "ins": 7611,
    "▁peril": 7612,
    "▁pew": 7613,
    "▁remb": 7614,
    "edang": 7615,
    "▁terang": 7616,
    "▁terper": 7617,
    "▁tungk": 7618,
    "lā": 7619,
    "m.": 7620,
    "▁meteorologi": 7621,
    "▁manajemen": 7622,
    "oterapi": 7623,
    "obat": 7624,
    "uistik": 7625,
    "▁angkat": 7626,
    "tal": 7627,
    "organ": 7628,
    "ometr": 7629,
    "ulum": 7630,
    "ografis": 7631,
    "▁badai": 7632,
    "▁bakar": 7633,
    "oro": 7634,
    "▁banyak": 7635,
    "▁beli": 7636,
    "isiko": 7637,
    "angkang": 7638,
    "indung": 7639,
    "aras": 7640,
    "ekap": 7641,
    "bang": 7642,
    "imi": 7643,
    "▁cina": 7644,
    "▁dak": 7645,
    "▁dal": 7646,
    "▁depan": 7647,
    "▁est": 7648,
    "ail": 7649,
    "▁gemp": 7650,
    "▁haji": 7651,
    "▁hel": 7652,
    "indu": 7653,
    "▁iklan": 7654,
    "▁jarak": 7655,
    "▁jasa": 7656,
    "awab": 7657,
    "ujur": 7658,
    "enjar": 7659,
    "ajaan": 7660,
    "▁kerak": 7661,
    "▁keseh": 7662,
    "▁kilat": 7663,
    "upsi": 7664,
    "▁lew": 7665,
    "▁mam": 7666,
    "▁mang": 7667,
    "set": 7668,
    "▁mempr": 7669,
    "ilkan": 7670,
    "uju": 7671,
    "afi": 7672,
    "-ny": 7673,
    "emas": 7674,
    "▁mol": 7675,
    "▁olig": 7676,
    "▁ort": 7677,
    "▁pangg": 7678,
    "▁pecah": 7679,
    "indah": 7680,
    "▁pengec": 7681,
    "▁perangkat": 7682,
    "▁potong": 7683,
    "▁prak": 7684,
    "▁pres": 7685,
    "▁rantai": 7686,
    "▁roda": 7687,
    "▁sari": 7688,
    "aruk": 7689,
    "▁seny": 7690,
    "empat": 7691,
    "▁siapa": 7692,
    "▁sudut": 7693,
    "▁akad": 7694,
    "okasi": 7695,
    "isitas": 7696,
    "rav": 7697,
    "san": 7698,
    "▁asas": 7699,
    "▁atm": 7700,
    "▁belanda": 7701,
    "iba": 7702,
    "irat": 7703,
    "emu": 7704,
    "orok": 7705,
    "▁bunyi": 7706,
    "▁dam": 7707,
    "▁darat": 7708,
    "esel": 7709,
    "amis": 7710,
    "▁dinas": 7711,
    "▁elektronik": 7712,
    "▁erg": 7713,
    "▁fos": 7714,
    "etar": 7715,
    "ogok": 7716,
    "ral": 7717,
    "▁jalur": 7718,
    "▁jan": 7719,
    "▁kebudayaan": 7720,
    "elak": 7721,
    "fan": 7722,
    "▁kelenjar": 7723,
    "▁kiri": 7724,
    "ervasi": 7725,
    "▁kud": 7726,
    "▁lakt": 7727,
    "edak": 7728,
    "▁lemah": 7729,
    "▁lembaga": 7730,
    "impa": 7731,
    "▁maksi": 7732,
    "▁mangk": 7733,
    "asir": 7734,
    "▁may": 7735,
    "▁memel": 7736,
    "▁mengab": 7737,
    "▁mengap": 7738,
    "arai": 7739,
    "▁mutlak": 7740,
    "oge": 7741,
    "▁nitr": 7742,
    "▁nomor": 7743,
    "▁pakaian": 7744,
    "▁pemerintah": 7745,
    "egi": 7746,
    "acara": 7747,
    "▁pukulan": 7748,
    "▁rez": 7749,
    "under": 7750,
    "▁sig": 7751,
    "▁sumpah": 7752,
    "▁surut": 7753,
    "▁tahap": 7754,
    "▁tersi": 7755,
    "▁tertutup": 7756,
    "▁tit": 7757,
    "▁tum": 7758,
    "iy": 7759,
    "hi": 7760,
    "▁intel": 7761,
    "▁biar": 7762,
    "adian": 7763,
    "▁tiada": 7764,
    "▁pd": 7765,
    "iar": 7766,
    "rod": 7767,
    "▁agung": 7768,
    "ulator": 7769,
    "▁alg": 7770,
    "angkup": 7771,
    "igen": 7772,
    "▁asuransi": 7773,
    "rib": 7774,
    "▁bantal": 7775,
    "▁bap": 7776,
    "uruh": 7777,
    "▁berkas": 7778,
    "esu": 7779,
    "isida": 7780,
    "utar": 7781,
    "ipar": 7782,
    "▁bisnis": 7783,
    "ekut": 7784,
    "▁bom": 7785,
    "▁buatan": 7786,
    "▁bubur": 7787,
    "▁celana": 7788,
    "dik": 7789,
    "▁cincin": 7790,
    "ramatik": 7791,
    "uta": 7792,
    "-meng": 7793,
    "▁ekspl": 7794,
    "otek": 7795,
    "umer": 7796,
    "▁flu": 7797,
    "▁gab": 7798,
    "anjur": 7799,
    "▁gangg": 7800,
    "til": 7801,
    "hana": 7802,
    "esek": 7803,
    "▁getah": 7804,
    "▁gig": 7805,
    "▁gug": 7806,
    "▁ham": 7807,
    "▁hamp": 7808,
    "▁harimau": 7809,
    "itung": 7810,
    "▁jantan": 7811,
    "▁jawa": 7812,
    "▁kamus": 7813,
    "▁keber": 7814,
    "ambah": 7815,
    "▁kelemb": 7816,
    "▁ketid": 7817,
    "asik": 7818,
    "▁kre": 7819,
    "▁kurva": 7820,
    "▁lagi": 7821,
    "▁laks": 7822,
    "▁malu": 7823,
    "alur": 7824,
    "ega": 7825,
    "▁merek": 7826,
    "ayaran": 7827,
    "▁perilaku": 7828,
    "▁pit": 7829,
    "▁punc": 7830,
    "▁raj": 7831,
    "▁rotan": 7832,
    "▁ruj": 7833,
    "▁sirk": 7834,
    "▁sl": 7835,
    "▁tat": 7836,
    "▁tegak": 7837,
    "▁topi": 7838,
    "▁tuj": 7839,
    "▁tusuk": 7840,
    "▁umpan": 7841,
    "▁unt": 7842,
    "▁usia": 7843,
    "▁vol": 7844,
    "▁wan": 7845,
    "▁zona": 7846,
    "▁oleh": 7847,
    "▁(m": 7848,
    "ogami": 7849,
    "▁administr": 7850,
    "aksis": 7851,
    "gi": 7852,
    "resif": 7853,
    "oblas": 7854,
    "▁aliran": 7855,
    "ey": 7856,
    "sel": 7857,
    "▁bac": 7858,
    "▁bapak": 7859,
    "▁bara": 7860,
    "▁bedah": 7861,
    "ayangan": 7862,
    "ongkok": 7863,
    "unuh": 7864,
    "uara": 7865,
    "ungkit": 7866,
    "▁berw": 7867,
    "▁biasa": 7868,
    "ki": 7869,
    "otomi": 7870,
    "▁cad": 7871,
    "isit": 7872,
    "adisi": 7873,
    "▁eku": 7874,
    "▁embun": 7875,
    "opati": 7876,
    "okol": 7877,
    "ores": 7878,
    "iditas": 7879,
    "▁glob": 7880,
    "▁guna": 7881,
    "ambatan": 7882,
    "ero": 7883,
    "ris": 7884,
    "asing": 7885,
    "▁kawat": 7886,
    "▁kemen": 7887,
    "using": 7888,
    "▁madu": 7889,
    "luk": 7890,
    "ankan": 7891,
    "▁memperb": 7892,
    "▁mencer": 7893,
    "▁menemp": 7894,
    "orak": 7895,
    "▁menyemb": 7896,
    "▁menyus": 7897,
    "iam": 7898,
    "▁nek": 7899,
    "▁od": 7900,
    "▁o": 7901,
    "lem": 7902,
    "▁payung": 7903,
    "▁pemas": 7904,
    "esar": 7905,
    "▁penerb": 7906,
    "▁pij": 7907,
    "▁pola": 7908,
    "▁produksi": 7909,
    "▁pucuk": 7910,
    "▁putar": 7911,
    "▁sapi": 7912,
    "▁sekunder": 7913,
    "▁semut": 7914,
    "▁spektr": 7915,
    "▁tanduk": 7916,
    "▁teknik": 7917,
    "▁terkel": 7918,
    "▁til": 7919,
    "▁untung": 7920,
    "▁(s": 7921,
    "▁tumbuhan": 7922,
    "▁adap": 7923,
    "▁aku": 7924,
    "▁alur": 7925,
    "ahat": 7926,
    "ung-": 7927,
    "ul-": 7928,
    "leksi": 7929,
    "agus": 7930,
    "ektur": 7931,
    "▁asap": 7932,
    "▁asim": 7933,
    "udit": 7934,
    "▁az": 7935,
    "▁badak": 7936,
    "▁batas": 7937,
    "atus": 7938,
    "anding": 7939,
    "enggam": 7940,
    "incir": 7941,
    "atakan": 7942,
    "ibah": 7943,
    "▁bertukar": 7944,
    "▁bic": 7945,
    "ole": 7946,
    "pol": 7947,
    "onk": 7948,
    "▁buaya": 7949,
    "▁bukit": 7950,
    "▁cep": 7951,
    "obek": 7952,
    "▁cokelat": 7953,
    "▁dewan": 7954,
    "lu": 7955,
    "▁ej": 7956,
    "▁empat": 7957,
    "arin": 7958,
    "▁glik": 7959,
    "▁hist": 7960,
    "itusi": 7961,
    "ask": 7962,
    "▁jak": 7963,
    "abang": 7964,
    "▁kaf": 7965,
    "▁kalau": 7966,
    "ataan": 7967,
    "amatan": 7968,
    "▁komedi": 7969,
    "▁kuk": 7970,
    "▁lama": 7971,
    "▁layanan": 7972,
    "▁magnet": 7973,
    "▁mahk": 7974,
    "emuk": 7975,
    "etkan": 7976,
    "aikan": 7977,
    "ilih": 7978,
    "▁memori": 7979,
    "ewa": 7980,
    "▁menang": 7981,
    "▁mengej": 7982,
    "▁menump": 7983,
    "ujud": 7984,
    "▁mineral": 7985,
    "▁neraca": 7986,
    "aturan": 7987,
    "▁pengab": 7988,
    "unjukan": 7989,
    "▁pinggang": 7990,
    "▁pinj": 7991,
    "iner": 7992,
    "▁prib": 7993,
    "▁pro": 7994,
    "▁rab": 7995,
    "▁rent": 7996,
    "▁rezeki": 7997,
    "▁risiko": 7998,
    "▁salju": 7999,
    "▁san": 8000,
    "▁setengah": 8001,
    "▁singk": 8002,
    "▁takb": 8003,
    "▁tapak": 8004,
    "▁taw": 8005,
    "▁tawar": 8006,
    "▁tebu": 8007,
    "▁tingk": 8008,
    "▁urat": 8009,
    "ide": 8010,
    "a.": 8011,
    "urai": 8012,
    "▁sbg": 8013,
    "ahatan": 8014,
    "▁abu": 8015,
    "io": 8016,
    "awati": 8017,
    "▁al-": 8018,
    "ohol": 8019,
    "ause": 8020,
    "▁antip": 8021,
    "sten": 8022,
    "oak": 8023,
    "▁awak": 8024,
    "▁bahu": 8025,
    "etuk": 8026,
    "hal": 8027,
    "ampilan": 8028,
    "insip": 8029,
    "ekah": 8030,
    "asy": 8031,
    "▁bh": 8032,
    "atika": 8033,
    "▁cinta": 8034,
    "orang": 8035,
    "▁cuc": 8036,
    "▁depresi": 8037,
    "▁dipl": 8038,
    "omania": 8039,
    "▁ex": 8040,
    "du": 8041,
    "▁geladak": 8042,
    "ulin": 8043,
    "▁integr": 8044,
    "▁itik": 8045,
    "▁jangkar": 8046,
    "uling": 8047,
    "▁kabar": 8048,
    "▁kampung": 8049,
    "amanan": 8050,
    "▁kendali": 8051,
    "▁ketaks": 8052,
    "▁ketam": 8053,
    "▁koord": 8054,
    "▁kutub": 8055,
    "antas": 8056,
    "▁lapisan": 8057,
    "▁leksi": 8058,
    "▁lensa": 8059,
    "▁majalah": 8060,
    "▁makna": 8061,
    "▁materi": 8062,
    "▁memak": 8063,
    "ulas": 8064,
    "▁menep": 8065,
    "▁mengac": 8066,
    "▁mengangg": 8067,
    "▁menged": 8068,
    "▁mengemp": 8069,
    "agang": 8070,
    "onde": 8071,
    "▁mud": 8072,
    "abis": 8073,
    "▁not": 8074,
    "▁nyawa": 8075,
    "akaran": 8076,
    "▁pengas": 8077,
    "ahanan": 8078,
    "▁posisi": 8079,
    "▁reaksi": 8080,
    "▁rom": 8081,
    "▁saw": 8082,
    "▁sendiri": 8083,
    "▁sendok": 8084,
    "▁sens": 8085,
    "▁seper": 8086,
    "▁sut": 8087,
    "trans": 8088,
    "▁tumbuh": 8089,
    "▁vokal": 8090,
    "▁wa": 8091,
    "adam": 8092,
    "sal": 8093,
    "▁alm": 8094,
    "sid": 8095,
    "▁bakteri": 8096,
    "atuk": 8097,
    "▁bawang": 8098,
    "iau": 8099,
[...]
