{
  "vocab": {
    "0": 60,
    "1": 35,
    "2": 63,
    "3": 46,
    "4": 64,
    "5": 45,
    "6": 36,
    "7": 61,
    "8": 44,
    "9": 62,
    "11": 1446,
    "17": 1018,
    "18": 1173,
    "20": 1135,
    "21": 1268,
    "24": 1459,
    "25": 1472,
    "26": 1128,
    "27": 1252,
    "28": 801,
    "29": 1281,
    "31": 1217,
    "35": 1467,
    "39": 941,
    "41": 1441,
    "43": 906,
    "48": 1155,
    "49": 1257,
    "51": 1272,
    "52": 1381,
    "53": 1158,
    "55": 1282,
    "57": 1280,
    "59": 1015,
    "63": 1144,
    "64": 1089,
    "65": 1162,
    "68": 1274,
    "70": 966,
    "73": 1204,
    "77": 1129,
    "80": 1470,
    "83": 1447,
    "87": 1221,
    "88": 1016,
    "91": 1276,
    "93": 1159,
    "96": 1449,
    "99": 1437,
    "126": 1466,
    "155": 1477,
    "163": 1440,
    "182": 1286,
    "205": 1412,
    "209": 1465,
    "277": 1457,
    "279": 1330,
    "314": 1377,
    "390": 1253,
    "457": 1480,
    "477": 1386,
    "519": 1455,
    "594": 1216,
    "649": 1326,
    "658": 1370,
    "673": 1417,
    "677": 1461,
    "720": 1456,
    "801": 1471,
    "820": 1458,
    "839": 1445,
    "888": 1261,
    "926": 1327,
    "936": 1478,
    "943": 1264,
    "948": 1357,
    "<PAD>": 0,
    "<UNK>": 1,
    "<BOS>": 2,
    "<EOS>": 3,
    "▁": 4,
    "<": 5,
    "M": 6,
    "E": 7,
    "O": 8,
    "R": 9,
    "Y": 10,
    "_": 11,
    "S": 12,
    "T": 13,
    ">": 14,
    "u": 15,
    "l": 16,
    "a": 17,
    "i": 18,
    "e": 19,
    "p": 20,
    "s": 21,
    "o": 22,
    "d": 23,
    "b": 24,
    "r": 25,
    ".": 26,
    "N": 27,
    "m": 28,
    "k": 29,
    "c": 30,
    "n": 31,
    "B": 32,
    ",": 33,
    "g": 34,
    "?": 37,
    "D": 38,
    "h": 39,
    "A": 40,
    "t": 41,
    ":": 42,
    "H": 43,
    "y": 47,
    "K": 48,
    "j": 49,
    "W": 50,
    "f": 51,
    "v": 52,
    "-": 53,
    "w": 54,
    "J": 55,
    "P": 56,
    "I": 57,
    "C": 58,
    "L": 59,
    "F": 65,
    "+": 66,
    "G": 67,
    "V": 68,
    "z": 69,
    "U": 70,
    "an": 71,
    "la": 72,
    "▁a": 73,
    "▁d": 74,
    "ku": 75,
    "ar": 76,
    "am": 77,
    "▁b": 78,
    "at": 79,
    "▁B": 80,
    "in": 81,
    "da": 82,
    "▁ada": 83,
    "▁m": 84,
    "▁k": 85,
    "lah": 86,
    "de": 87,
    "▁adalah": 88,
    "ode": 89,
    "ik": 90,
    "is": 91,
    "▁t": 92,
    "er": 93,
    "ak": 94,
    "▁e": 95,
    "as": 96,
    "al": 97,
    "▁Ba": 98,
    "ang": 99,
    "▁A": 100,
    "▁s": 101,
    "▁Baik": 102,
    "▁di": 103,
    "▁M": 104,
    "ing": 105,
    "pis": 106,
    "pisode": 107,
    "pa": 108,
    "en": 109,
    "▁episode": 110,
    "or": 111,
    "ama": 112,
    "aru": 113,
    "it": 114,
    "▁f": 115,
    "▁baru": 116,
    "mu": 117,
    "OR": 118,
    "▁p": 119,
    "ME": 120,
    "MEM": 121,
    "MEMOR": 122,
    "MEMORY": 123,
    "RE": 124,
    "RES": 125,
    "RESE": 126,
    "RESET": 127,
    "lai": 128,
    "▁Mu": 129,
    "▁Mulai": 130,
    "ta": 131,
    "em": 132,
    "▁dan": 133,
    "ah": 134,
    "▁N": 135,
    "amu": 136,
    "im": 137,
    "un": 138,
    "▁n": 139,
    "▁c": 140,
    "si": 141,
    "akta": 142,
    "ingg": 143,
    "▁tingg": 144,
    "▁tinggal": 145,
    "▁Apa": 146,
    "on": 147,
    "▁S": 148,
    "▁ke": 149,
    "▁r": 150,
    "▁Nama": 151,
    "ih": 152,
    "ek": 153,
    "uk": 154,
    "av": 155,
    "aw": 156,
    "el": 157,
    "▁la": 158,
    "▁Aku": 159,
    "▁D": 160,
    "um": 161,
    "il": 162,
    "▁nama": 163,
    "awa": 164,
    "▁fav": 165,
    "▁favor": 166,
    "▁favorit": 167,
    "▁P": 168,
    "ul": 169,
    "ya": 170,
    "▁aku": 171,
    "▁mem": 172,
    "▁h": 173,
    "ut": 174,
    "es": 175,
    "ur": 176,
    "ask": 177,
    "▁K": 178,
    "asa": 179,
    "apa": 180,
    "▁J": 181,
    "ari": 182,
    "▁l": 183,
    "▁fakta": 184,
    "▁kec": 185,
    "▁kecil": 186,
    "▁task": 187,
    "▁dum": 188,
    "▁dumm": 189,
    "▁dummy": 190,
    "ihan": 191,
    "us": 192,
    "▁kamu": 193,
    "▁y": 194,
    "▁yang": 195,
    "ana": 196,
    "▁F": 197,
    "▁T": 198,
    "ot": 199,
    "ant": 200,
    "kan": 201,
    "asi": 202,
    "ass": 203,
    "bawa": 204,
    "▁mode": 205,
    "▁model": 206,
    "▁Fakta": 207,
    "atat": 208,
    "▁C": 209,
    "pat": 210,
    "ung": 211,
    "▁j": 212,
    "ini": 213,
    "▁pr": 214,
    "ir": 215,
    "▁pen": 216,
    "et": 217,
    "▁ten": 218,
    "▁em": 219,
    "▁L": 220,
    "▁ku": 221,
    "arn": 222,
    "arna": 223,
    "▁favoritku": 224,
    "assw": 225,
    "asswor": 226,
    "assword": 227,
    "▁lat": 228,
    "▁latihan": 229,
    "▁mana": 230,
    "▁bah": 231,
    "▁bahasa": 232,
    "▁I": 233,
    "ingk": 234,
    "ingkat": 235,
    "ata": 236,
    "ed": 237,
    "uj": 238,
    "ad": 239,
    "▁g": 240,
    "▁ko": 241,
    "▁R": 242,
    "▁membawa": 243,
    "▁kal": 244,
    "▁kalim": 245,
    "▁kalimat": 246,
    "ai": 247,
    "arang": 248,
    "▁ber": 249,
    "nya": 250,
    "▁w": 251,
    "▁warna": 252,
    "alan": 253,
    "amamu": 254,
    "▁catat": 255,
    "▁kota": 256,
    "ujan": 257,
    "▁Si": 258,
    "▁Siapa": 259,
    "▁E": 260,
    "aj": 261,
    "▁ini": 262,
    "▁tent": 263,
    "▁tentang": 264,
    "▁bes": 265,
    "▁besar": 266,
    "▁emb": 267,
    "▁embed": 268,
    "▁embedd": 269,
    "▁embedding": 270,
    "ensi": 271,
    "eb": 272,
    "bu": 273,
    "▁un": 274,
    "▁unt": 275,
    "▁untuk": 276,
    "erv": 277,
    "akan": 278,
    "wan": 279,
    "▁men": 280,
    "▁8": 281,
    "▁5": 282,
    "▁sek": 283,
    "▁sekarang": 284,
    "▁sat": 285,
    "▁favoritmu": 286,
    "▁Bu": 287,
    "og": 288,
    "epat": 289,
    "▁Kamu": 290,
    "▁singkat": 291,
    "▁H": 292,
    "▁In": 293,
    "▁Ind": 294,
    "aya": 295,
    "▁Di": 296,
    "pan": 297,
    "emb": 298,
    "▁1": 299,
    "om": 300,
    "▁mel": 301,
    "ab": 302,
    "ulan": 303,
    "ua": 304,
    "▁prim": 305,
    "▁primer": 306,
    "▁Buat": 307,
    "ri": 308,
    "00": 309,
    "ban": 310,
    "▁Indon": 311,
    "▁Indone": 312,
    "▁Indonesi": 313,
    "▁Indonesia": 314,
    "▁ter": 315,
    "awaban": 316,
    "▁kata": 317,
    "ka": 318,
    "inon": 319,
    "inonim": 320,
    "▁dari": 321,
    "▁cepat": 322,
    "▁O": 323,
    "▁dim": 324,
    "▁dimensi": 325,
    "▁hujan": 326,
    "▁serv": 327,
    "▁server": 328,
    "ort": 329,
    "▁apa": 330,
    "▁dit": 331,
    "▁ditam": 332,
    "▁ditamb": 333,
    "▁ditambah": 334,
    "adang": 335,
    "▁Ber": 336,
    "▁Berapa": 337,
    "▁bir": 338,
    "▁biru": 339,
    "oti": 340,
    "▁Bah": 341,
    "▁Bahasa": 342,
    "ulis": 343,
    "▁meng": 344,
    "uda": 345,
    "udah": 346,
    "gi": 347,
    "▁Password": 348,
    "▁password": 349,
    "uang": 350,
    "▁bern": 351,
    "▁bernama": 352,
    "▁satu": 353,
    "las": 354,
    "ja": 355,
    "▁Namaku": 356,
    "▁namamu": 357,
    "▁kode": 358,
    "▁ap": 359,
    "▁apel": 360,
    "▁Tulis": 361,
    "▁suk": 362,
    "▁pa": 363,
    "▁awan": 364,
    "ci": 365,
    "akar": 366,
    "akarta": 367,
    "▁ala": 368,
    "▁se": 369,
    "▁pagi": 370,
    "▁pende": 371,
    "▁pendek": 372,
    "lang": 373,
    "▁rah": 374,
    "▁rahasi": 375,
    "aku": 376,
    "uku": 377,
    "▁kecilku": 378,
    "ingku": 379,
    "ingmu": 380,
    "iang": 381,
    "ra": 382,
    "▁pro": 383,
    "▁proy": 384,
    "▁proyek": 385,
    "▁Mem": 386,
    "▁Memor": 387,
    "ihat": 388,
    "▁3": 389,
    "▁peng": 390,
    "▁Re": 391,
    "adangan": 392,
    "▁ch": 393,
    "▁char": 394,
    "▁charg": 395,
    "▁charger": 396,
    "os": 397,
    "▁mat": 398,
    "▁matah": 399,
    "▁matahari": 400,
    "pt": 401,
    "▁fin": 402,
    "▁final": 403,
    "ons": 404,
    "ol": 405,
    "▁memak": 406,
    "▁memakai": 407,
    "▁namaku": 408,
    "▁Namamu": 409,
    "▁2": 410,
    "▁me": 411,
    "▁meja": 412,
    "omor": 413,
    "ok": 414,
    "osen": 415,
    "▁pemb": 416,
    "▁pembim": 417,
    "▁pembimb": 418,
    "▁gar": 419,
    "▁bulan": 420,
    "▁sus": 421,
    "▁susu": 422,
    "▁air": 423,
    "▁min": 424,
    "▁miner": 425,
    "▁mineral": 426,
    "▁it": 427,
    "▁itu": 428,
    "▁Jav": 429,
    "▁Java": 430,
    "ian": 431,
    "ha": 432,
    "hap": 433,
    "▁suka": 434,
    "ore": 435,
    "▁jawaban": 436,
    "▁buku": 437,
    "ukai": 438,
    "▁mer": 439,
    "▁merah": 440,
    "▁hari": 441,
    "▁pant": 442,
    "▁pantun": 443,
    "▁Jalan": 444,
    "▁melihat": 445,
    "▁hat": 446,
    "▁hati": 447,
    "▁riang": 448,
    "▁sepan": 449,
    "▁sepanj": 450,
    "▁sepanjang": 451,
    "▁jalan": 452,
    "▁roti": 453,
    "▁V": 454,
    "▁Dic": 455,
    "▁Dicatat": 456,
    "▁terb": 457,
    "▁terbaru": 458,
    "▁G": 459,
    "isi": 460,
    "▁kelas": 461,
    "lin": 462,
    "dik": 463,
    "▁penghap": 464,
    "▁penghapus": 465,
    "▁W": 466,
    "car": 467,
    "▁alam": 468,
    "akak": 469,
    "▁Seb": 470,
    "▁Sebut": 471,
    "▁Sebutkan": 472,
    "▁dua": 473,
    "▁Dua": 474,
    "▁mis": 475,
    "▁misal": 476,
    "▁misalnya": 477,
    "ite": 478,
    "Sc": 479,
    "Scri": 480,
    "Script": 481,
    "▁Ban": 482,
    "▁saj": 483,
    "▁saja": 484,
    "▁kubawa": 485,
    "▁i": 486,
    "▁ibu": 487,
    "▁Ibu": 488,
    "▁Jakarta": 489,
    "▁leb": 490,
    "▁lebih": 491,
    "▁lawan": 492,
    "▁Law": 493,
    "▁Lawan": 494,
    "gka": 495,
    "▁kab": 496,
    "▁kabel": 497,
    "000": 498,
    "ersi": 499,
    "▁melet": 500,
    "▁meletak": 501,
    "▁meletakkan": 502,
    "▁sinonim": 503,
    "▁Sinonim": 504,
    "▁ant": 505,
    "▁antar": 506,
    "▁antara": 507,
    "▁lain": 508,
    "▁lek": 509,
    "▁lekas": 510,
    "▁ges": 511,
    "▁gesit": 512,
    "▁rahasiaku": 513,
    "▁ra": 514,
    "▁garam": 515,
    "▁laut": 516,
    "▁La": 517,
    "▁Laut": 518,
    "▁tenang": 519,
    "▁memant": 520,
    "▁memantul": 521,
    "▁memantulkan": 522,
    "▁cah": 523,
    "▁cahaya": 524,
    "▁dosen": 525,
    "▁Pak": 526,
    "▁Rev": 527,
    "▁Revisi": 528,
    "▁serverku": 529,
    "▁servermu": 530,
    "▁mengg": 531,
    "▁menggun": 532,
    "▁menggunakan": 533,
    "▁port": 534,
    "▁Port": 535,
    "▁kakak": 536,
    "▁kuc": 537,
    "▁bur": 538,
    "▁burung": 539,
    "▁ruang": 540,
    "▁Ap": 541,
    "▁Apak": 542,
    "▁Apakah": 543,
    "▁mudah": 544,
    "▁Tingkat": 545,
    "▁kes": 546,
    "▁kesul": 547,
    "▁kesulit": 548,
    "▁kesulitan": 549,
    "▁kesulitannya": 550,
    "▁terg": 551,
    "▁tergant": 552,
    "▁tergantung": 553,
    "▁data": 554,
    "▁fit": 555,
    "▁fitur": 556,
    "▁ar": 557,
    "▁ars": 558,
    "▁arsit": 559,
    "▁arsitek": 560,
    "▁arsitekt": 561,
    "▁arsitektur": 562,
    "▁9": 563,
    "ajar": 564,
    "▁Hit": 565,
    "▁Hitung": 566,
    "▁13": 567,
    "▁kus": 568,
    "▁kusukai": 569,
    "▁Hujan": 570,
    "▁tur": 571,
    "▁turun": 572,
    "▁lemb": 573,
    "▁lembut": 574,
    "▁sore": 575,
    "▁fil": 576,
    "▁file": 577,
    "adw": 578,
    "adwal": 579,
    "▁rapat": 580,
    "usa": 581,
    "▁cer": 582,
    "▁ceri": 583,
    "▁proyekku": 584,
    "▁Kode": 585,
    "▁bel": 586,
    "▁belum": 587,
    "▁tah": 588,
    "▁tahu": 589,
    "▁adik": 590,
    "ima": 591,
    "▁Sem": 592,
    "▁mot": 593,
    "▁motor": 594,
    "▁in": 595,
    "▁jer": 596,
    "▁jeruk": 597,
    "iko": 598,
    "▁Cer": 599,
    "▁Cerit": 600,
    "▁Ceritakan": 601,
    "▁Bulan": 602,
    "▁satel": 603,
    "▁satelit": 604,
    "▁alami": 605,
    "▁Bum": 606,
    "▁Bumi": 607,
    "▁elang": 608,
    "▁Episode": 609,
    "▁dimu": 610,
    "▁dimulai": 611,
    "▁Memori": 612,
    "▁sudah": 613,
    "▁dir": 614,
    "▁dires": 615,
    "▁direset": 616,
    "▁Jawaban": 617,
    "▁Jawabannya": 618,
    "▁An": 619,
    "▁Angka": 620,
    "eg": 621,
    "▁rak": 622,
    "utama": 623,
    "▁cadangan": 624,
    "▁akun": 625,
    "▁kam": 626,
    "▁kamer": 627,
    "js": 628,
    "json": 629,
    "ela": 630,
    "▁int": 631,
    "▁intan": 632,
    "op": 633,
    "▁hi": 634,
    "▁v": 635,
    "▁Mak": 636,
    "▁Makass": 637,
    "▁Makassar": 638,
    "▁pem": 639,
    "ukm": 640,
    "ukman": 641,
    "▁mask": 642,
    "▁masker": 643,
    "▁pensi": 644,
    "▁pensil": 645,
    "▁Sol": 646,
    "▁Solo": 647,
    "▁6": 648,
    "▁moti": 649,
    "▁motiv": 650,
    "▁motivasi": 651,
    "▁Lat": 652,
    "▁Latihan": 653,
    "▁kons": 654,
    "▁konsis": 655,
    "▁konsist": 656,
    "▁konsisten": 657,
    "▁bis": 658,
    "▁bisa": 659,
    "▁mengh": 660,
    "▁menghas": 661,
    "▁menghasil": 662,
    "▁menghasilkan": 663,
    "▁kem": 664,
    "▁kemaj": 665,
    "▁kemaju": 666,
    "▁kemajuan": 667,
    "▁Sur": 668,
    "▁Surab": 669,
    "▁Surabaya": 670,
    "▁pemr": 671,
    "▁pemrog": 672,
    "▁pemrogr": 673,
    "▁pemrogram": 674,
    "▁pemrograman": 675,
    "▁fajar": 676,
    "ont": 677,
    "▁res": 678,
    "▁reserv": 679,
    "▁reservasi": 680,
    "▁ik": 681,
    "▁ikan": 682,
    "▁hias": 683,
    "der": 684,
    "▁versi": 685,
    "▁kecilmu": 686,
    "▁Dim": 687,
    "▁Dimensi": 688,
    "▁Nomor": 689,
    "▁nomor": 690,
    "▁Bog": 691,
    "▁Bogor": 692,
    "▁ang": 693,
    "▁angka": 694,
    "▁Lukman": 695,
    "▁pembimbingku": 696,
    "▁pembimbingmu": 697,
    "▁Mini": 698,
    "▁MiniR": 699,
    "▁MiniRusa": 700,
    "▁om": 701,
    "▁omb": 702,
    "▁ombak": 703,
    "▁Tin": 704,
    "▁Tiny": 705,
    "▁TinyE": 706,
    "▁TinyElang": 707,
    "fi": 708,
    "▁dur": 709,
    "▁durian": 710,
    "▁Os": 711,
    "▁Oscar": 712,
    "▁JavaScript": 713,
    "▁32": 714,
    "▁fol": 715,
    "▁folder": 716,
    "▁folderku": 717,
    "▁Ori": 718,
    "▁Orion": 719,
    "▁tik": 720,
    "▁tiket": 721,
    "▁Bal": 722,
    "▁Balik": 723,
    "▁Balikpa": 724,
    "▁Balikpapan": 725,
    "▁jadwal": 726,
    "oga": 727,
    "▁Warna": 728,
    "▁Kot": 729,
    "▁Kotlin": 730,
    "▁kla": 731,
    "▁klasi": 732,
    "▁klasif": 733,
    "▁klasifik": 734,
    "▁klasifikasi": 735,
    "▁emo": 736,
    "▁emosi": 737,
    "cadangan": 738,
    "enang": 739,
    "▁Pont": 740,
    "▁Pontian": 741,
    "▁Pontianak": 742,
    "▁put": 743,
    "▁an": 744,
    "▁anj": 745,
    "▁Bank": 746,
    "▁BankN": 747,
    "▁BankNet": 748,
    "▁Memory": 749,
    "▁MemoryL": 750,
    "▁MemoryLite": 751,
    "▁beb": 752,
    "▁bebek": 753,
    "▁ot": 754,
    "▁otp": 755,
    "▁dummyku": 756,
    "▁OT": 757,
    "▁OTP": 758,
    "▁dummymu": 759,
    "▁putih": 760,
    "▁kelasku": 761,
    "amar": 762,
    "▁Ruang": 763,
    "▁kakakmu": 764,
    "▁Damar": 765,
    "als": 766,
    "alsa": 767,
    "▁tok": 768,
    "▁token": 769,
    "▁kelin": 770,
    "▁kelinci": 771,
    "▁rek": 772,
    "▁rekons": 773,
    "▁rekonst": 774,
    "▁rekonstr": 775,
    "▁rekonstruk": 776,
    "▁rekonstruksi": 777,
    "▁det": 778,
    "▁detek": 779,
    "▁deteksi": 780,
    "▁ni": 781,
    "▁niat": 782,
    "akanan": 783,
    "gus": 784,
    "▁modelku": 785,
    "itra": 786,
    "▁Den": 787,
    "▁Denp": 788,
    "▁Denpas": 789,
    "▁Denpasar": 790,
    "ac": 791,
    "▁Semarang": 792,
    "▁Wh": 793,
    "▁White": 794,
    "▁WhiteG": 795,
    "▁WhiteGat": 796,
    "▁WhiteGate": 797,
    "▁WhiteGateM": 798,
    "▁WhiteGateMini": 799,
    "▁rahasiamu": 800,
    "▁berapa": 802,
    "▁lok": 803,
    "▁lokasi": 804,
    "▁kameraku": 805,
    "▁kucingku": 806,
    "▁kucingmu": 807,
    "▁Band": 808,
    "▁Bandung": 809,
    "▁burungku": 810,
    "▁burungmu": 811,
    "▁Y": 812,
    "▁Yog": 813,
    "▁Yogy": 814,
    "▁Yogyakarta": 815,
    "ina": 816,
    "▁Padang": 817,
    "▁bela": 818,
    "▁128": 819,
    "▁Rus": 820,
    "▁Rust": 821,
    "▁Ra": 822,
    "▁Teg": 823,
    "▁Tegar": 824,
    "▁Salsa": 825,
    "▁rapatku": 826,
    "ita": 827,
    "▁sepat": 828,
    "▁sepatu": 829,
    "▁Mal": 830,
    "▁Malang": 831,
    "▁meny": 832,
    "▁Vina": 833,
    "▁adikku": 834,
    "▁alat": 835,
    "▁Ala": 836,
    "▁Alat": 837,
    "▁adikmu": 838,
    "▁Bima": 839,
    "▁Citra": 840,
    "▁kun": 841,
    "enda": 842,
    "▁kakakku": 843,
    "▁Nad": 844,
    "▁Nadi": 845,
    "▁Nadia": 846,
    "▁Py": 847,
    "▁Pyt": 848,
    "▁Pyth": 849,
    "▁Python": 850,
    "▁lem": 851,
    "▁Go": 852,
    "▁Gita": 853,
    "▁empat": 854,
    "irana": 855,
    "▁Ty": 856,
    "▁Typ": 857,
    "▁Type": 858,
    "▁TypeScript": 859,
    "▁gun": 860,
    "▁gunung": 861,
    "▁lima": 862,
    "▁Jihan": 863,
    "▁Rec": 864,
    "▁Recal": 865,
    "▁Recall": 866,
    "▁RecallO": 867,
    "▁RecallOn": 868,
    "▁RecallOne": 869,
    "▁sukai": 870,
    "▁Akun": 871,
    "▁utama": 872,
    "▁cadanganku": 873,
    "▁64": 874,
    "▁Semoga": 875,
    "▁berj": 876,
    "▁berjalan": 877,
    "▁lan": 878,
    "▁lancar": 879,
    "▁Put": 880,
    "▁Putri": 881,
    "▁tuj": 882,
    "▁tuju": 883,
    "▁tujuh": 884,
    "ingin": 885,
    "▁pred": 886,
    "▁predik": 887,
    "▁prediksi": 888,
    "▁kelasmu": 889,
    "▁hit": 890,
    "▁hitam": 891,
    "▁Rafi": 892,
    "eman": 893,
    "▁berenang": 894,
    "oto": 895,
    "▁Veg": 896,
    "▁Vega": 897,
    "▁16": 898,
    "▁Kiko": 899,
    "▁7": 900,
    "▁kunci": 901,
    "▁menya": 902,
    "▁menyala": 903,
    "▁menyalakan": 904,
    "▁motorku": 905,
    "▁25": 907,
    "▁Mo": 908,
    "▁Moci": 909,
    "▁lemari": 910,
    "▁reservasiku": 911,
    "▁reservasimu": 912,
    "▁hiasku": 913,
    "▁hiasmu": 914,
    "▁Makanan": 915,
    "▁pal": 916,
    "▁paling": 917,
    "▁laci": 918,
    "▁catatan": 919,
    "▁Versi": 920,
    "▁modelmu": 921,
    "▁8000": 922,
    "▁proyekmu": 923,
    "▁Dosen": 924,
    "▁Min": 925,
    "▁Minum": 926,
    "▁Minuman": 927,
    "▁sep": 928,
    "▁seper": 929,
    "▁sepert": 930,
    "▁seperti": 931,
    "▁tiketku": 932,
    "▁tiketmu": 933,
    "▁finalku": 934,
    "▁finalmu": 935,
    "▁Jadwal": 936,
    "▁rapatmu": 937,
    "▁kamera": 938,
    "▁foto": 939,
    "▁fotoku": 940,
    "▁garasi": 942,
    "▁belak": 943,
    "▁belakang": 944,
    "▁256": 945,
    "▁Bubu": 946,
    "▁Piko": 947,
    "▁tas": 948,
    "▁cok": 949,
    "▁cokela": 950,
    "▁cokelat": 951,
    "▁Bon": 952,
    "▁Boni": 953,
    "▁ker": 954,
    "▁kerja": 955,
    "▁Kirana": 956,
    "▁sam": 957,
    "▁samp": 958,
    "▁samping": 959,
    "▁lapt": 960,
    "▁laptop": 961,
    "▁pengen": 962,
    "▁pengenalan": 963,
    "▁top": 964,
    "▁topik": 965,
    "▁anjingku": 967,
    "▁anjingmu": 968,
    "▁Indra": 969,
    "▁Bore": 970,
    "▁Boreal": 971,
    "▁Borealis": 972,
    "▁4": 973,
    "▁Nusa": 974,
    "▁kegi": 975,
    "▁kegiat": 976,
    "▁kegiatan": 977,
    "▁ba": 978,
    "▁bagus": 979,
    "▁gur": 980,
    "▁guruku": 981,
    "▁Sir": 982,
    "▁Siri": 983,
    "▁Sirius": 984,
    "▁Fajar": 985,
    "▁Hana": 986,
    "▁sed": 987,
    "▁sedang": 988,
    "▁makan": 989,
    "▁siang": 990,
    "US": 991,
    "USA": 992,
    "▁te": 993,
    "▁teh": 994,
    "▁kac": 995,
    "▁kacam": 996,
    "▁kacamata": 997,
    "▁bant": 998,
    "▁bantu": 999,
    "▁lihat": 1000,
    "▁lihatku": 1001,
    "▁Al": 1002,
    "▁Alya": 1003,
    "▁kelinciku": 1004,
    "▁kelincimu": 1005,
    "ga": 1006,
    "▁Maya": 1007,
    "▁9000": 1008,
    "▁5000": 1009,
    "▁C7": 1010,
    "▁Hari": 1011,
    "▁memb": 1012,
    "▁membac": 1013,
    "▁membaca": 1014,
    "elas": 1017,
    "▁dom": 1019,
    "▁domp": 1020,
    "▁dompet": 1021,
    "empat": 1022,
    "▁uang": 1023,
    "▁uangku": 1024,
    "▁Gaya": 1025,
    "▁menyukai": 1026,
    "▁Bagus": 1027,
    "▁sem": 1028,
    "▁semoga": 1029,
    "▁harimu": 1030,
    "▁menyenang": 1031,
    "▁menyenangkan": 1032,
    "tes": 1033,
    "test": 1034,
    "▁alamat": 1035,
    "▁rum": 1036,
    "▁rumah": 1037,
    "▁rumahku": 1038,
    "▁benda": 1039,
    "▁Benda": 1040,
    "▁Adik": 1041,
    "▁Adikku": 1042,
    "▁sel": 1043,
    "▁seles": 1044,
    "▁selesai": 1045,
    "▁o": 1046,
    "▁olah": 1047,
    "▁olahra": 1048,
    "▁olahraga": 1049,
    "▁Ch": 1050,
    "▁Chiko": 1051,
    "▁Mil": 1052,
    "▁Milo": 1053,
    "con": 1054,
    "confi": 1055,
    "config": 1056,
    "▁dra": 1057,
    "▁draf": 1058,
    "▁draft": 1059,
    "▁kur": 1060,
    "▁kursi": 1061,
    "▁tamu": 1062,
    "▁dingin": 1063,
    "▁Eka": 1064,
    "▁At": 1065,
    "▁Atlas": 1066,
    "▁kop": 1067,
    "▁kopi": 1068,
    "▁Kur": 1069,
    "▁Kuro": 1070,
    "▁Ken": 1071,
    "▁Kenc": 1072,
    "▁Kencana": 1073,
    "▁270": 1074,
    "▁27017": 1075,
    "DA": 1076,
    "▁utamaku": 1077,
    "▁cadanganmu": 1078,
    "▁hel": 1079,
    "▁helm": 1080,
    "erl": 1081,
    "erlen": 1082,
    "erlengka": 1083,
    "erlengkapan": 1084,
    "▁kepa": 1085,
    "▁kepala": 1086,
    "▁na": 1087,
    "▁naik": 1088,
    "08": 1090,
    "▁543": 1091,
    "▁Teman": 1092,
    "▁Temanku": 1093,
    "▁teman": 1094,
    "▁temanmu": 1095,
    "▁hang": 1096,
    "▁hangat": 1097,
    "▁3000": 1098,
    "▁Lab": 1099,
    "▁makanan": 1100,
    "▁Or": 1101,
    "▁Ore": 1102,
    "▁Oreo": 1103,
    "▁pul": 1104,
    "▁pulp": 1105,
    "▁pulpen": 1106,
    "▁tulis": 1107,
    "▁tulisku": 1108,
    "▁ingin": 1109,
    "▁belaj": 1110,
    "▁belajar": 1111,
    "▁raj": 1112,
    "▁rajin": 1113,
    "▁catatanku": 1114,
    "▁mo": 1115,
    "▁mob": 1116,
    "▁mobil": 1117,
    "▁mobilku": 1118,
    "▁ket": 1119,
    "▁ketop": 1120,
    "▁ketopr": 1121,
    "▁ketoprak": 1122,
    "▁CE": 1123,
    "▁CEN": 1124,
    "▁CENDA": 1125,
    "▁CENDAN": 1126,
    "▁CENDANA": 1127,
    "▁finalnya": 1130,
    "▁Ka": 1131,
    "▁Kapan": 1132,
    "04": 1133,
    "▁RUSA": 1134,
    "▁Jum": 1136,
    "▁Jumat": 1137,
    "▁mengisi": 1138,
    "▁daya": 1139,
    "▁pons": 1140,
    "▁ponsel": 1141,
    "▁ponselku": 1142,
    "▁5432": 1143,
    "▁tokeni": 1145,
    "▁tokeniz": 1146,
    "▁tokenizer": 1147,
    "vo": 1148,
    "voc": 1149,
    "vocab": 1150,
    "▁eka": 1151,
    "▁BI": 1152,
    "▁BIM": 1153,
    "▁BIMA": 1154,
    "▁Sen": 1156,
    "▁Senin": 1157,
    "▁Rak": 1160,
    "▁Raka": 1161,
    "▁31": 1163,
    "▁Mim": 1164,
    "▁Mimi": 1165,
    "▁kot": 1166,
    "▁kotak": 1167,
    "▁Sab": 1168,
    "▁Sabt": 1169,
    "▁Sabtu": 1170,
    "▁Lun": 1171,
    "▁Luna": 1172,
    "▁kirana": 1174,
    "080": 1175,
    "▁Nem": 1176,
    "▁Nemo": 1177,
    "▁penj": 1178,
    "▁penjelas": 1179,
    "▁penjelasan": 1180,
    "▁berta": 1181,
    "▁bertahap": 1182,
    "▁tempat": 1183,
    "▁Tempat": 1184,
    "▁ind": 1185,
    "▁indra": 1186,
    "▁flas": 1187,
    "▁flash": 1188,
    "▁flashd": 1189,
    "▁flashdis": 1190,
    "▁flashdisk": 1191,
    "yim": 1192,
    "yimpan": 1193,
    "yimpanan": 1194,
    "▁Kakak": 1195,
    "▁Kakakku": 1196,
    "▁Selas": 1197,
    "▁Selasa": 1198,
    "▁NUSA": 1199,
    "▁OR": 1200,
    "▁ORI": 1201,
    "▁ORIO": 1202,
    "▁ORION": 1203,
    "▁204": 1205,
    "05": 1206,
    "▁jingg": 1207,
    "▁jingga": 1208,
    "▁B3": 1209,
    "▁Rabu": 1210,
    "▁perlengkapan": 1211,
    "▁Perlengkapan": 1212,
    "▁Mingg": 1213,
    "▁Minggu": 1214,
    "▁61": 1215,
    "▁ung": 1218,
    "▁ungu": 1219,
    "▁95": 1220,
    "▁93": 1222,
    "▁cont": 1223,
    "▁conto": 1224,
    "▁contoh": 1225,
    "▁lang": 1226,
    "▁langs": 1227,
    "▁langsung": 1228,
    "▁memor": 1229,
    "▁memory": 1230,
    "tra": 1231,
    "train": 1232,
    "▁ay": 1233,
    "▁ayam": 1234,
    "▁kuning": 1235,
    "▁dial": 1236,
    "▁dialog": 1237,
    "▁dialogu": 1238,
    "▁dialogue": 1239,
    "data": 1240,
    "▁Buku": 1241,
    "▁tan": 1242,
    "▁tanpa": 1243,
    "▁gu": 1244,
    "▁gula": 1245,
    "▁nasi": 1246,
    "▁gor": 1247,
    "▁goren": 1248,
    "▁goreng": 1249,
    "▁A2": 1250,
    "▁8080": 1251,
    "▁pe": 1254,
    "▁pec": 1255,
    "▁pecel": 1256,
    "▁lemon": 1258,
    "▁54": 1259,
    "▁90": 1260,
    "▁pay": 1262,
    "▁payung": 1263,
    "▁abu": 1265,
    "abu": 1266,
    "07": 1267,
    "▁lukman": 1269,
    "▁os": 1270,
    "▁oscar": 1271,
    "▁91": 1273,
    "▁A1": 1275,
    "▁citra": 1277,
    "▁305": 1278,
    "▁rafi": 1279,
    "▁penyimpanan": 1283,
    "▁Pen": 1284,
    "▁Penyimpanan": 1285,
    "▁D4": 1287,
    "▁BOR": 1288,
    "▁BORE": 1289,
    "▁BOREA": 1290,
    "▁BOREAL": 1291,
    "▁BOREALI": 1292,
    "▁BOREALIS": 1293,
    "▁salsa": 1294,
    "▁hija": 1295,
    "▁hijau": 1296,
    "▁85": 1297,
    "▁731": 1298,
    "▁AT": 1299,
    "▁ATL": 1300,
    "▁ATLA": 1301,
    "▁ATLAS": 1302,
    "▁76": 1303,
    "▁760": 1304,
    "▁926": 1305,
    "▁9587": 1306,
    "▁10": 1307,
    "▁1059": 1308,
    "▁9365": 1309,
    "▁3126": 1310,
    "▁62": 1311,
    "▁6221": 1312,
    "▁100": 1313,
    "▁mi": 1314,
    "▁mie": 1315,
    "▁639": 1316,
    "▁6391": 1317,
    "▁343": 1318,
    "▁934": 1319,
    "▁9346": 1320,
    "▁3165": 1321,
    "▁464": 1322,
    "▁4642": 1323,
    "▁904": 1324,
    "▁9041": 1325,
    "▁98": 1328,
    "▁9829": 1329,
    "▁27": 1331,
    "▁2764": 1332,
    "▁57": 1333,
    "▁576": 1334,
    "▁5762": 1335,
    "▁2548": 1336,
    "▁5080": 1337,
    "▁jus": 1338,
    "▁mang": 1339,
    "▁mangga": 1340,
    "▁maya": 1341,
    "▁805": 1342,
    "▁8057": 1343,
    "▁99": 1344,
    "▁9949": 1345,
    "▁159": 1346,
    "▁1596": 1347,
    "▁807": 1348,
    "▁9390": 1349,
    "▁9153": 1350,
    "▁92": 1351,
    "▁9218": 1352,
    "▁87": 1353,
    "▁871": 1354,
    "▁8710": 1355,
    "▁5427": 1356,
    "▁gita": 1358,
    "▁soto": 1359,
    "▁1663": 1360,
    "▁78": 1361,
    "▁7864": 1362,
    "▁193": 1363,
    "▁1932": 1364,
    "▁653": 1365,
    "▁6535": 1366,
    "▁9070": 1367,
    "▁973": 1368,
    "▁9738": 1369,
    "▁Kam": 1371,
    "▁Kamis": 1372,
    "▁seder": 1373,
    "▁sederh": 1374,
    "▁sederhana": 1375,
    "▁1687": 1376,
    "▁pemp": 1378,
    "▁pempek": 1379,
    "▁449": 1380,
    "▁77": 1382,
    "▁7739": 1383,
    "▁40": 1384,
    "▁4077": 1385,
    "▁167": 1387,
    "▁6888": 1388,
    "▁6108": 1389,
    "▁5888": 1390,
    "▁33": 1391,
    "▁336": 1392,
    "▁81": 1393,
    "▁8139": 1394,
    "▁9088": 1395,
    "▁bak": 1396,
    "▁baks": 1397,
    "▁bakso": 1398,
    "▁954": 1399,
    "▁848": 1400,
    "▁8485": 1401,
    "▁36": 1402,
    "▁366": 1403,
    "▁3669": 1404,
    "▁94": 1405,
    "▁9451": 1406,
    "▁21": 1407,
    "▁2159": 1408,
    "▁4943": 1409,
    "▁753": 1410,
    "▁7531": 1411,
    "▁GA": 1413,
    "▁GAR": 1414,
    "▁GARU": 1415,
    "▁GARUDA": 1416,
    "▁370": 1418,
    "▁3705": 1419,
    "▁8539": 1420,
    "▁544": 1421,
    "▁5447": 1422,
    "▁663": 1423,
    "▁11": 1424,
    "▁1191": 1425,
    "▁3193": 1426,
    "▁es": 1427,
    "▁5430": 1428,
    "▁B5": 1429,
    "▁79": 1430,
    "▁7963": 1431,
    "▁43": 1432,
    "▁4355": 1433,
    "▁59": 1434,
    "▁707": 1435,
    "▁7076": 1436,
    "▁74": 1438,
    "▁7488": 1439,
    "▁39": 1442,
    "▁3964": 1443,
    "▁bima": 1444,
    "▁6118": 1448,
    "▁val": 1450,
    "▁vali": 1451,
    "▁valida": 1452,
    "▁validasi": 1453,
    "bank": 1454,
    "▁damar": 1460,
    "▁9117": 1462,
    "▁44": 1463,
    "▁4408": 1464,
    "▁6139": 1468,
    "▁9182": 1469,
    "▁putri": 1473,
    "▁48": 1474,
    "▁4852": 1475,
    "▁vina": 1476,
    "▁5594": 1479
  },
  "merges": [
    [
      "a",
      "n"
    ],
    [
      "l",
      "a"
    ],
    [
      "▁",
      "a"
    ],
    [
      "▁",
      "d"
    ],
    [
      "k",
      "u"
    ],
    [
      "a",
      "r"
    ],
    [
      "a",
      "m"
    ],
    [
      "▁",
      "b"
    ],
    [
      "a",
      "t"
    ],
    [
      "▁",
      "B"
    ],
    [
      "i",
      "n"
    ],
    [
      "d",
      "a"
    ],
    [
      "▁a",
      "da"
    ],
    [
      "▁",
      "m"
    ],
    [
      "▁",
      "k"
    ],
    [
      "la",
      "h"
    ],
    [
      "d",
      "e"
    ],
    [
      "▁ada",
      "lah"
    ],
    [
      "o",
      "de"
    ],
    [
      "i",
      "k"
    ],
    [
      "i",
      "s"
    ],
    [
      "▁",
      "t"
    ],
    [
      "e",
      "r"
    ],
    [
      "a",
      "k"
    ],
    [
      "▁",
      "e"
    ],
    [
      "a",
      "s"
    ],
    [
      "a",
      "l"
    ],
    [
      "▁B",
      "a"
    ],
    [
      "an",
      "g"
    ],
    [
      "▁",
      "A"
    ],
    [
      "▁",
      "s"
    ],
    [
      "▁Ba",
      "ik"
    ],
    [
      "▁d",
      "i"
    ],
    [
      "▁",
      "M"
    ],
    [
      "in",
      "g"
    ],
    [
      "p",
      "is"
    ],
    [
      "pis",
      "ode"
    ],
    [
      "p",
      "a"
    ],
    [
      "e",
      "n"
    ],
    [
      "▁e",
      "pisode"
    ],
    [
      "o",
      "r"
    ],
    [
      "am",
      "a"
    ],
    [
      "ar",
      "u"
    ],
    [
      "i",
      "t"
    ],
    [
      "▁",
      "f"
    ],
    [
      "▁b",
      "aru"
    ],
    [
      "m",
      "u"
    ],
    [
      "O",
      "R"
    ],
    [
      "▁",
      "p"
    ],
    [
      "M",
      "E"
    ],
    [
      "ME",
      "M"
    ],
    [
      "MEM",
      "OR"
    ],
    [
      "MEMOR",
      "Y"
    ],
    [
      "R",
      "E"
    ],
    [
      "RE",
      "S"
    ],
    [
      "RES",
      "E"
    ],
    [
      "RESE",
      "T"
    ],
    [
      "la",
      "i"
    ],
    [
      "▁M",
      "u"
    ],
    [
      "▁Mu",
      "lai"
    ],
    [
      "t",
      "a"
    ],
    [
      "e",
      "m"
    ],
    [
      "▁d",
      "an"
    ],
    [
      "a",
      "h"
    ],
    [
      "▁",
      "N"
    ],
    [
      "am",
      "u"
    ],
    [
      "i",
      "m"
    ],
    [
      "u",
      "n"
    ],
    [
      "▁",
      "n"
    ],
    [
      "▁",
      "c"
    ],
    [
      "s",
      "i"
    ],
    [
      "ak",
      "ta"
    ],
    [
      "ing",
      "g"
    ],
    [
      "▁t",
      "ingg"
    ],
    [
      "▁tingg",
      "al"
    ],
    [
      "▁A",
      "pa"
    ],
    [
      "o",
      "n"
    ],
    [
      "▁",
      "S"
    ],
    [
      "▁k",
      "e"
    ],
    [
      "▁",
      "r"
    ],
    [
      "▁N",
      "ama"
    ],
    [
      "i",
      "h"
    ],
    [
      "e",
      "k"
    ],
    [
      "u",
      "k"
    ],
    [
      "a",
      "v"
    ],
    [
      "a",
      "w"
    ],
    [
      "e",
      "l"
    ],
    [
      "▁",
      "la"
    ],
    [
      "▁A",
      "ku"
    ],
    [
      "▁",
      "D"
    ],
    [
      "u",
      "m"
    ],
    [
      "i",
      "l"
    ],
    [
      "▁n",
      "ama"
    ],
    [
      "aw",
      "a"
    ],
    [
      "▁f",
      "av"
    ],
    [
      "▁fav",
      "or"
    ],
    [
      "▁favor",
      "it"
    ],
    [
      "▁",
      "P"
    ],
    [
      "u",
      "l"
    ],
    [
      "y",
      "a"
    ],
    [
      "▁a",
      "ku"
    ],
    [
      "▁m",
      "em"
    ],
    [
      "▁",
      "h"
    ],
    [
      "u",
      "t"
    ],
    [
      "e",
      "s"
    ],
    [
      "u",
      "r"
    ],
    [
      "as",
      "k"
    ],
    [
      "▁",
      "K"
    ],
    [
      "as",
      "a"
    ],
    [
      "a",
      "pa"
    ],
    [
      "▁",
      "J"
    ],
    [
      "ar",
      "i"
    ],
    [
      "▁",
      "l"
    ],
    [
      "▁f",
      "akta"
    ],
    [
      "▁ke",
      "c"
    ],
    [
      "▁kec",
      "il"
    ],
    [
      "▁t",
      "ask"
    ],
    [
      "▁d",
      "um"
    ],
    [
      "▁dum",
      "m"
    ],
    [
      "▁dumm",
      "y"
    ],
    [
      "ih",
      "an"
    ],
    [
      "u",
      "s"
    ],
    [
      "▁k",
      "amu"
    ],
    [
      "▁",
      "y"
    ],
    [
      "▁y",
      "ang"
    ],
    [
      "an",
      "a"
    ],
    [
      "▁",
      "F"
    ],
    [
      "▁",
      "T"
    ],
    [
      "o",
      "t"
    ],
    [
      "an",
      "t"
    ],
    [
      "k",
      "an"
    ],
    [
      "as",
      "i"
    ],
    [
      "as",
      "s"
    ],
    [
      "b",
      "awa"
    ],
    [
      "▁m",
      "ode"
    ],
    [
      "▁mode",
      "l"
    ],
    [
      "▁F",
      "akta"
    ],
    [
      "at",
      "at"
    ],
    [
      "▁",
      "C"
    ],
    [
      "p",
      "at"
    ],
    [
      "un",
      "g"
    ],
    [
      "▁",
      "j"
    ],
    [
      "in",
      "i"
    ],
    [
      "▁p",
      "r"
    ],
    [
      "i",
      "r"
    ],
    [
      "▁p",
      "en"
    ],
    [
      "e",
      "t"
    ],
    [
      "▁t",
      "en"
    ],
    [
      "▁e",
      "m"
    ],
    [
      "▁",
      "L"
    ],
    [
      "▁",
      "ku"
    ],
    [
      "ar",
      "n"
    ],
    [
      "arn",
      "a"
    ],
    [
      "▁favorit",
      "ku"
    ],
    [
      "ass",
      "w"
    ],
    [
      "assw",
      "or"
    ],
    [
      "asswor",
      "d"
    ],
    [
      "▁la",
      "t"
    ],
    [
      "▁lat",
      "ihan"
    ],
    [
      "▁m",
      "ana"
    ],
    [
      "▁b",
      "ah"
    ],
    [
      "▁bah",
      "asa"
    ],
    [
      "▁",
      "I"
    ],
    [
      "ing",
      "k"
    ],
    [
      "ingk",
      "at"
    ],
    [
      "at",
      "a"
    ],
    [
      "e",
      "d"
    ],
    [
      "u",
      "j"
    ],
    [
      "a",
      "d"
    ],
    [
      "▁",
      "g"
    ],
    [
      "▁k",
      "o"
    ],
    [
      "▁",
      "R"
    ],
    [
      "▁mem",
      "bawa"
    ],
    [
      "▁k",
      "al"
    ],
    [
      "▁kal",
      "im"
    ],
    [
      "▁kalim",
      "at"
    ],
    [
      "a",
      "i"
    ],
    [
      "ar",
      "ang"
    ],
    [
      "▁b",
      "er"
    ],
    [
      "n",
      "ya"
    ],
    [
      "▁",
      "w"
    ],
    [
      "▁w",
      "arna"
    ],
    [
      "al",
      "an"
    ],
    [
      "am",
      "amu"
    ],
    [
      "▁c",
      "atat"
    ],
    [
      "▁ko",
      "ta"
    ],
    [
      "uj",
      "an"
    ],
    [
      "▁S",
      "i"
    ],
    [
      "▁Si",
      "apa"
    ],
    [
      "▁",
      "E"
    ],
    [
      "a",
      "j"
    ],
    [
      "▁",
      "ini"
    ],
    [
      "▁ten",
      "t"
    ],
    [
      "▁tent",
      "ang"
    ],
    [
      "▁b",
      "es"
    ],
    [
      "▁bes",
      "ar"
    ],
    [
      "▁em",
      "b"
    ],
    [
      "▁emb",
      "ed"
    ],
    [
      "▁embed",
      "d"
    ],
    [
      "▁embedd",
      "ing"
    ],
    [
      "en",
      "si"
    ],
    [
      "e",
      "b"
    ],
    [
      "b",
      "u"
    ],
    [
      "▁",
      "un"
    ],
    [
      "▁un",
      "t"
    ],
    [
      "▁unt",
      "uk"
    ],
    [
      "er",
      "v"
    ],
    [
      "ak",
      "an"
    ],
    [
      "w",
      "an"
    ],
    [
      "▁m",
      "en"
    ],
    [
      "▁",
      "8"
    ],
    [
      "▁",
      "5"
    ],
    [
      "▁s",
      "ek"
    ],
    [
      "▁sek",
      "arang"
    ],
    [
      "▁s",
      "at"
    ],
    [
      "▁favorit",
      "mu"
    ],
    [
      "▁B",
      "u"
    ],
    [
      "o",
      "g"
    ],
    [
      "e",
      "pat"
    ],
    [
      "▁K",
      "amu"
    ],
    [
      "▁s",
      "ingkat"
    ],
    [
      "▁",
      "H"
    ],
    [
      "▁I",
      "n"
    ],
    [
      "▁In",
      "d"
    ],
    [
      "a",
      "ya"
    ],
    [
      "▁D",
      "i"
    ],
    [
      "p",
      "an"
    ],
    [
      "em",
      "b"
    ],
    [
      "▁",
      "1"
    ],
    [
      "o",
      "m"
    ],
    [
      "▁m",
      "el"
    ],
    [
      "a",
      "b"
    ],
    [
      "ul",
      "an"
    ],
    [
      "u",
      "a"
    ],
    [
      "▁pr",
      "im"
    ],
    [
      "▁prim",
      "er"
    ],
    [
      "▁Bu",
      "at"
    ],
    [
      "r",
      "i"
    ],
    [
      "0",
      "0"
    ],
    [
      "b",
      "an"
    ],
    [
      "▁Ind",
      "on"
    ],
    [
      "▁Indon",
      "e"
    ],
    [
      "▁Indone",
      "si"
    ],
    [
      "▁Indonesi",
      "a"
    ],
    [
      "▁t",
      "er"
    ],
    [
      "awa",
      "ban"
    ],
    [
      "▁k",
      "ata"
    ],
    [
      "k",
      "a"
    ],
    [
      "in",
      "on"
    ],
    [
      "inon",
      "im"
    ],
    [
      "▁d",
      "ari"
    ],
    [
      "▁c",
      "epat"
    ],
    [
      "▁",
      "O"
    ],
    [
      "▁di",
      "m"
    ],
    [
      "▁dim",
      "ensi"
    ],
    [
      "▁h",
      "ujan"
    ],
    [
      "▁s",
      "erv"
    ],
    [
      "▁serv",
      "er"
    ],
    [
      "or",
      "t"
    ],
    [
      "▁a",
      "pa"
    ],
    [
      "▁di",
      "t"
    ],
    [
      "▁dit",
      "am"
    ],
    [
      "▁ditam",
      "b"
    ],
    [
      "▁ditamb",
      "ah"
    ],
    [
      "ad",
      "ang"
    ],
    [
      "▁B",
      "er"
    ],
    [
      "▁Ber",
      "apa"
    ],
    [
      "▁b",
      "ir"
    ],
    [
      "▁bir",
      "u"
    ],
    [
      "ot",
      "i"
    ],
    [
      "▁Ba",
      "h"
    ],
    [
      "▁Bah",
      "asa"
    ],
    [
      "ul",
      "is"
    ],
    [
      "▁men",
      "g"
    ],
    [
      "u",
      "da"
    ],
    [
      "uda",
      "h"
    ],
    [
      "g",
      "i"
    ],
    [
      "▁P",
      "assword"
    ],
    [
      "▁p",
      "assword"
    ],
    [
      "u",
      "ang"
    ],
    [
      "▁ber",
      "n"
    ],
    [
      "▁bern",
      "ama"
    ],
    [
      "▁sat",
      "u"
    ],
    [
      "la",
      "s"
    ],
    [
      "j",
      "a"
    ],
    [
      "▁Nama",
      "ku"
    ],
    [
      "▁n",
      "amamu"
    ],
    [
      "▁k",
      "ode"
    ],
    [
      "▁a",
      "p"
    ],
    [
      "▁ap",
      "el"
    ],
    [
      "▁T",
      "ulis"
    ],
    [
      "▁s",
      "uk"
    ],
    [
      "▁",
      "pa"
    ],
    [
      "▁a",
      "wan"
    ],
    [
      "c",
      "i"
    ],
    [
      "ak",
      "ar"
    ],
    [
      "akar",
      "ta"
    ],
    [
      "▁a",
      "la"
    ],
    [
      "▁s",
      "e"
    ],
    [
      "▁pa",
      "gi"
    ],
    [
      "▁pen",
      "de"
    ],
    [
      "▁pende",
      "k"
    ],
    [
      "l",
      "ang"
    ],
    [
      "▁r",
      "ah"
    ],
    [
      "▁rah",
      "asi"
    ],
    [
      "a",
      "ku"
    ],
    [
      "u",
      "ku"
    ],
    [
      "▁kecil",
      "ku"
    ],
    [
      "ing",
      "ku"
    ],
    [
      "ing",
      "mu"
    ],
    [
      "i",
      "ang"
    ],
    [
      "r",
      "a"
    ],
    [
      "▁pr",
      "o"
    ],
    [
      "▁pro",
      "y"
    ],
    [
      "▁proy",
      "ek"
    ],
    [
      "▁M",
      "em"
    ],
    [
      "▁Mem",
      "or"
    ],
    [
      "ih",
      "at"
    ],
    [
      "▁",
      "3"
    ],
    [
      "▁pen",
      "g"
    ],
    [
      "▁R",
      "e"
    ],
    [
      "adang",
      "an"
    ],
    [
      "▁c",
      "h"
    ],
    [
      "▁ch",
      "ar"
    ],
    [
      "▁char",
      "g"
    ],
    [
      "▁charg",
      "er"
    ],
    [
      "o",
      "s"
    ],
    [
      "▁m",
      "at"
    ],
    [
      "▁mat",
      "ah"
    ],
    [
      "▁matah",
      "ari"
    ],
    [
      "p",
      "t"
    ],
    [
      "▁f",
      "in"
    ],
    [
      "▁fin",
      "al"
    ],
    [
      "on",
      "s"
    ],
    [
      "o",
      "l"
    ],
    [
      "▁mem",
      "ak"
    ],
    [
      "▁memak",
      "ai"
    ],
    [
      "▁nama",
      "ku"
    ],
    [
      "▁N",
      "amamu"
    ],
    [
      "▁",
      "2"
    ],
    [
      "▁m",
      "e"
    ],
    [
      "▁me",
      "ja"
    ],
    [
      "om",
      "or"
    ],
    [
      "o",
      "k"
    ],
    [
      "os",
      "en"
    ],
    [
      "▁p",
      "emb"
    ],
    [
      "▁pemb",
      "im"
    ],
    [
      "▁pembim",
      "b"
    ],
    [
      "▁g",
      "ar"
    ],
    [
      "▁b",
      "ulan"
    ],
    [
      "▁s",
      "us"
    ],
    [
      "▁sus",
      "u"
    ],
    [
      "▁a",
      "ir"
    ],
    [
      "▁m",
      "in"
    ],
    [
      "▁min",
      "er"
    ],
    [
      "▁miner",
      "al"
    ],
    [
      "▁",
      "it"
    ],
    [
      "▁it",
      "u"
    ],
    [
      "▁J",
      "av"
    ],
    [
      "▁Jav",
      "a"
    ],
    [
      "i",
      "an"
    ],
    [
      "h",
      "a"
    ],
    [
      "ha",
      "p"
    ],
    [
      "▁suk",
      "a"
    ],
    [
      "or",
      "e"
    ],
    [
      "▁j",
      "awaban"
    ],
    [
      "▁b",
      "uku"
    ],
    [
      "uk",
      "ai"
    ],
    [
      "▁m",
      "er"
    ],
    [
      "▁mer",
      "ah"
    ],
    [
      "▁h",
      "ari"
    ],
    [
      "▁p",
      "ant"
    ],
    [
      "▁pant",
      "un"
    ],
    [
      "▁J",
      "alan"
    ],
    [
      "▁mel",
      "ihat"
    ],
    [
      "▁h",
      "at"
    ],
    [
      "▁hat",
      "i"
    ],
    [
      "▁r",
      "iang"
    ],
    [
      "▁se",
      "pan"
    ],
    [
      "▁sepan",
      "j"
    ],
    [
      "▁sepanj",
      "ang"
    ],
    [
      "▁j",
      "alan"
    ],
    [
      "▁r",
      "oti"
    ],
    [
      "▁",
      "V"
    ],
    [
      "▁Di",
      "c"
    ],
    [
      "▁Dic",
      "atat"
    ],
    [
      "▁ter",
      "b"
    ],
    [
      "▁terb",
      "aru"
    ],
    [
      "▁",
      "G"
    ],
    [
      "is",
      "i"
    ],
    [
      "▁ke",
      "las"
    ],
    [
      "l",
      "in"
    ],
    [
      "d",
      "ik"
    ],
    [
      "▁peng",
      "hap"
    ],
    [
      "▁penghap",
      "us"
    ],
    [
      "▁",
      "W"
    ],
    [
      "c",
      "ar"
    ],
    [
      "▁ala",
      "m"
    ],
    [
      "ak",
      "ak"
    ],
    [
      "▁S",
      "eb"
    ],
    [
      "▁Seb",
      "ut"
    ],
    [
      "▁Sebut",
      "kan"
    ],
    [
      "▁d",
      "ua"
    ],
    [
      "▁D",
      "ua"
    ],
    [
      "▁m",
      "is"
    ],
    [
      "▁mis",
      "al"
    ],
    [
      "▁misal",
      "nya"
    ],
    [
      "it",
      "e"
    ],
    [
      "S",
      "c"
    ],
    [
      "Sc",
      "ri"
    ],
    [
      "Scri",
      "pt"
    ],
    [
      "▁B",
      "an"
    ],
    [
      "▁s",
      "aj"
    ],
    [
      "▁saj",
      "a"
    ],
    [
      "▁ku",
      "bawa"
    ],
    [
      "▁",
      "i"
    ],
    [
      "▁i",
      "bu"
    ],
    [
      "▁I",
      "bu"
    ],
    [
      "▁J",
      "akarta"
    ],
    [
      "▁l",
      "eb"
    ],
    [
      "▁leb",
      "ih"
    ],
    [
      "▁la",
      "wan"
    ],
    [
      "▁L",
      "aw"
    ],
    [
      "▁Law",
      "an"
    ],
    [
      "g",
      "ka"
    ],
    [
      "▁k",
      "ab"
    ],
    [
      "▁kab",
      "el"
    ],
    [
      "00",
      "0"
    ],
    [
      "er",
      "si"
    ],
    [
      "▁mel",
      "et"
    ],
    [
      "▁melet",
      "ak"
    ],
    [
      "▁meletak",
      "kan"
    ],
    [
      "▁s",
      "inonim"
    ],
    [
      "▁S",
      "inonim"
    ],
    [
      "▁",
      "ant"
    ],
    [
      "▁ant",
      "ar"
    ],
    [
      "▁antar",
      "a"
    ],
    [
      "▁la",
      "in"
    ],
    [
      "▁l",
      "ek"
    ],
    [
      "▁lek",
      "as"
    ],
    [
      "▁g",
      "es"
    ],
    [
      "▁ges",
      "it"
    ],
    [
      "▁rahasi",
      "aku"
    ],
    [
      "▁r",
      "a"
    ],
    [
      "▁gar",
      "am"
    ],
    [
      "▁la",
      "ut"
    ],
    [
      "▁L",
      "a"
    ],
    [
      "▁La",
      "ut"
    ],
    [
      "▁ten",
      "ang"
    ],
    [
      "▁mem",
      "ant"
    ],
    [
      "▁memant",
      "ul"
    ],
    [
      "▁memantul",
      "kan"
    ],
    [
      "▁c",
      "ah"
    ],
    [
      "▁cah",
      "aya"
    ],
    [
      "▁d",
      "osen"
    ],
    [
      "▁P",
      "ak"
    ],
    [
      "▁Re",
      "v"
    ],
    [
      "▁Rev",
      "isi"
    ],
    [
      "▁server",
      "ku"
    ],
    [
      "▁server",
      "mu"
    ],
    [
      "▁meng",
      "g"
    ],
    [
      "▁mengg",
      "un"
    ],
    [
      "▁menggun",
      "akan"
    ],
    [
      "▁p",
      "ort"
    ],
    [
      "▁P",
      "ort"
    ],
    [
      "▁k",
      "akak"
    ],
    [
      "▁ku",
      "c"
    ],
    [
      "▁b",
      "ur"
    ],
    [
      "▁bur",
      "ung"
    ],
    [
      "▁r",
      "uang"
    ],
    [
      "▁A",
      "p"
    ],
    [
      "▁Ap",
      "ak"
    ],
    [
      "▁Apak",
      "ah"
    ],
    [
      "▁m",
      "udah"
    ],
    [
      "▁T",
      "ingkat"
    ],
    [
      "▁ke",
      "s"
    ],
    [
      "▁kes",
      "ul"
    ],
    [
      "▁kesul",
      "it"
    ],
    [
      "▁kesulit",
      "an"
    ],
    [
      "▁kesulitan",
      "nya"
    ],
    [
      "▁ter",
      "g"
    ],
    [
      "▁terg",
      "ant"
    ],
    [
      "▁tergant",
      "ung"
    ],
    [
      "▁d",
      "ata"
    ],
    [
      "▁f",
      "it"
    ],
    [
      "▁fit",
      "ur"
    ],
    [
      "▁a",
      "r"
    ],
    [
      "▁ar",
      "s"
    ],
    [
      "▁ars",
      "it"
    ],
    [
      "▁arsit",
      "ek"
    ],
    [
      "▁arsitek",
      "t"
    ],
    [
      "▁arsitekt",
      "ur"
    ],
    [
      "▁",
      "9"
    ],
    [
      "aj",
      "ar"
    ],
    [
      "▁H",
      "it"
    ],
    [
      "▁Hit",
      "ung"
    ],
    [
      "▁1",
      "3"
    ],
    [
      "▁ku",
      "s"
    ],
    [
      "▁kus",
      "ukai"
    ],
    [
      "▁H",
      "ujan"
    ],
    [
      "▁t",
      "ur"
    ],
    [
      "▁tur",
      "un"
    ],
    [
      "▁l",
      "emb"
    ],
    [
      "▁lemb",
      "ut"
    ],
    [
      "▁s",
      "ore"
    ],
    [
      "▁f",
      "il"
    ],
    [
      "▁fil",
      "e"
    ],
    [
      "ad",
      "w"
    ],
    [
      "adw",
      "al"
    ],
    [
      "▁ra",
      "pat"
    ],
    [
      "us",
      "a"
    ],
    [
      "▁c",
      "er"
    ],
    [
      "▁cer",
      "i"
    ],
    [
      "▁proyek",
      "ku"
    ],
    [
      "▁K",
      "ode"
    ],
    [
      "▁b",
      "el"
    ],
    [
      "▁bel",
      "um"
    ],
    [
      "▁t",
      "ah"
    ],
    [
      "▁tah",
      "u"
    ],
    [
      "▁a",
      "dik"
    ],
    [
      "im",
      "a"
    ],
    [
      "▁S",
      "em"
    ],
    [
      "▁m",
      "ot"
    ],
    [
      "▁mot",
      "or"
    ],
    [
      "▁",
      "in"
    ],
    [
      "▁j",
      "er"
    ],
    [
      "▁jer",
      "uk"
    ],
    [
      "ik",
      "o"
    ],
    [
      "▁C",
      "er"
    ],
    [
      "▁Cer",
      "it"
    ],
    [
      "▁Cerit",
      "akan"
    ],
    [
      "▁B",
      "ulan"
    ],
    [
      "▁sat",
      "el"
    ],
    [
      "▁satel",
      "it"
    ],
    [
      "▁alam",
      "i"
    ],
    [
      "▁B",
      "um"
    ],
    [
      "▁Bum",
      "i"
    ],
    [
      "▁e",
      "lang"
    ],
    [
      "▁E",
      "pisode"
    ],
    [
      "▁di",
      "mu"
    ],
    [
      "▁dimu",
      "lai"
    ],
    [
      "▁Memor",
      "i"
    ],
    [
      "▁s",
      "udah"
    ],
    [
      "▁di",
      "r"
    ],
    [
      "▁dir",
      "es"
    ],
    [
      "▁dires",
      "et"
    ],
    [
      "▁J",
      "awaban"
    ],
    [
      "▁Jawaban",
      "nya"
    ],
    [
      "▁A",
      "n"
    ],
    [
      "▁An",
      "gka"
    ],
    [
      "e",
      "g"
    ],
    [
      "▁r",
      "ak"
    ],
    [
      "ut",
      "ama"
    ],
    [
      "▁c",
      "adangan"
    ],
    [
      "▁aku",
      "n"
    ],
    [
      "▁k",
      "am"
    ],
    [
      "▁kam",
      "er"
    ],
    [
      "j",
      "s"
    ],
    [
      "js",
      "on"
    ],
    [
      "e",
      "la"
    ],
    [
      "▁in",
      "t"
    ],
    [
      "▁int",
      "an"
    ],
    [
      "o",
      "p"
    ],
    [
      "▁h",
      "i"
    ],
    [
      "▁",
      "v"
    ],
    [
      "▁M",
      "ak"
    ],
    [
      "▁Mak",
      "ass"
    ],
    [
      "▁Makass",
      "ar"
    ],
    [
      "▁p",
      "em"
    ],
    [
      "uk",
      "m"
    ],
    [
      "ukm",
      "an"
    ],
    [
      "▁m",
      "ask"
    ],
    [
      "▁mask",
      "er"
    ],
    [
      "▁pen",
      "si"
    ],
    [
      "▁pensi",
      "l"
    ],
    [
      "▁S",
      "ol"
    ],
    [
      "▁Sol",
      "o"
    ],
    [
      "▁",
      "6"
    ],
    [
      "▁m",
      "oti"
    ],
    [
      "▁moti",
      "v"
    ],
    [
      "▁motiv",
      "asi"
    ],
    [
      "▁L",
      "at"
    ],
    [
      "▁Lat",
      "ihan"
    ],
    [
      "▁k",
      "ons"
    ],
    [
      "▁kons",
      "is"
    ],
    [
      "▁konsis",
      "t"
    ],
    [
      "▁konsist",
      "en"
    ],
    [
      "▁b",
      "is"
    ],
    [
      "▁bis",
      "a"
    ],
    [
      "▁meng",
      "h"
    ],
    [
      "▁mengh",
      "as"
    ],
    [
      "▁menghas",
      "il"
    ],
    [
      "▁menghasil",
      "kan"
    ],
    [
      "▁k",
      "em"
    ],
    [
      "▁kem",
      "aj"
    ],
    [
      "▁kemaj",
      "u"
    ],
    [
      "▁kemaju",
      "an"
    ],
    [
      "▁S",
      "ur"
    ],
    [
      "▁Sur",
      "ab"
    ],
    [
      "▁Surab",
      "aya"
    ],
    [
      "▁pem",
      "r"
    ],
    [
      "▁pemr",
      "og"
    ],
    [
      "▁pemrog",
      "r"
    ],
    [
      "▁pemrogr",
      "am"
    ],
    [
      "▁pemrogram",
      "an"
    ],
    [
      "▁f",
      "ajar"
    ],
    [
      "on",
      "t"
    ],
    [
      "▁r",
      "es"
    ],
    [
      "▁res",
      "erv"
    ],
    [
      "▁reserv",
      "asi"
    ],
    [
      "▁",
      "ik"
    ],
    [
      "▁ik",
      "an"
    ],
    [
      "▁hi",
      "as"
    ],
    [
      "de",
      "r"
    ],
    [
      "▁v",
      "ersi"
    ],
    [
      "▁kecil",
      "mu"
    ],
    [
      "▁D",
      "im"
    ],
    [
      "▁Dim",
      "ensi"
    ],
    [
      "▁N",
      "omor"
    ],
    [
      "▁n",
      "omor"
    ],
    [
      "▁B",
      "og"
    ],
    [
      "▁Bog",
      "or"
    ],
    [
      "▁",
      "ang"
    ],
    [
      "▁ang",
      "ka"
    ],
    [
      "▁L",
      "ukman"
    ],
    [
      "▁pembimb",
      "ingku"
    ],
    [
      "▁pembimb",
      "ingmu"
    ],
    [
      "▁M",
      "ini"
    ],
    [
      "▁Mini",
      "R"
    ],
    [
      "▁MiniR",
      "usa"
    ],
    [
      "▁",
      "om"
    ],
    [
      "▁om",
      "b"
    ],
    [
      "▁omb",
      "ak"
    ],
    [
      "▁T",
      "in"
    ],
    [
      "▁Tin",
      "y"
    ],
    [
      "▁Tiny",
      "E"
    ],
    [
      "▁TinyE",
      "lang"
    ],
    [
      "f",
      "i"
    ],
    [
      "▁d",
      "ur"
    ],
    [
      "▁dur",
      "ian"
    ],
    [
      "▁O",
      "s"
    ],
    [
      "▁Os",
      "car"
    ],
    [
      "▁Java",
      "Script"
    ],
    [
      "▁3",
      "2"
    ],
    [
      "▁f",
      "ol"
    ],
    [
      "▁fol",
      "der"
    ],
    [
      "▁folder",
      "ku"
    ],
    [
      "▁O",
      "ri"
    ],
    [
      "▁Ori",
      "on"
    ],
    [
      "▁t",
      "ik"
    ],
    [
      "▁tik",
      "et"
    ],
    [
      "▁B",
      "al"
    ],
    [
      "▁Bal",
      "ik"
    ],
    [
      "▁Balik",
      "pa"
    ],
    [
      "▁Balikpa",
      "pan"
    ],
    [
      "▁j",
      "adwal"
    ],
    [
      "og",
      "a"
    ],
    [
      "▁W",
      "arna"
    ],
    [
      "▁K",
      "ot"
    ],
    [
      "▁Kot",
      "lin"
    ],
    [
      "▁k",
      "la"
    ],
    [
      "▁kla",
      "si"
    ],
    [
      "▁klasi",
      "f"
    ],
    [
      "▁klasif",
      "ik"
    ],
    [
      "▁klasifik",
      "asi"
    ],
    [
      "▁em",
      "o"
    ],
    [
      "▁emo",
      "si"
    ],
    [
      "c",
      "adangan"
    ],
    [
      "en",
      "ang"
    ],
    [
      "▁P",
      "ont"
    ],
    [
      "▁Pont",
      "ian"
    ],
    [
      "▁Pontian",
      "ak"
    ],
    [
      "▁p",
      "ut"
    ],
    [
      "▁",
      "an"
    ],
    [
      "▁an",
      "j"
    ],
    [
      "▁Ban",
      "k"
    ],
    [
      "▁Bank",
      "N"
    ],
    [
      "▁BankN",
      "et"
    ],
    [
      "▁Memor",
      "y"
    ],
    [
      "▁Memory",
      "L"
    ],
    [
      "▁MemoryL",
      "ite"
    ],
    [
      "▁b",
      "eb"
    ],
    [
      "▁beb",
      "ek"
    ],
    [
      "▁",
      "ot"
    ],
    [
      "▁ot",
      "p"
    ],
    [
      "▁dummy",
      "ku"
    ],
    [
      "▁O",
      "T"
    ],
    [
      "▁OT",
      "P"
    ],
    [
      "▁dummy",
      "mu"
    ],
    [
      "▁put",
      "ih"
    ],
    [
      "▁kelas",
      "ku"
    ],
    [
      "am",
      "ar"
    ],
    [
      "▁R",
      "uang"
    ],
    [
      "▁kakak",
      "mu"
    ],
    [
      "▁D",
      "amar"
    ],
    [
      "al",
      "s"
    ],
    [
      "als",
      "a"
    ],
    [
      "▁t",
      "ok"
    ],
    [
      "▁tok",
      "en"
    ],
    [
      "▁ke",
      "lin"
    ],
    [
      "▁kelin",
      "ci"
    ],
    [
      "▁r",
      "ek"
    ],
    [
      "▁rek",
      "ons"
    ],
    [
      "▁rekons",
      "t"
    ],
    [
      "▁rekonst",
      "r"
    ],
    [
      "▁rekonstr",
      "uk"
    ],
    [
      "▁rekonstruk",
      "si"
    ],
    [
      "▁d",
      "et"
    ],
    [
      "▁det",
      "ek"
    ],
    [
      "▁detek",
      "si"
    ],
    [
      "▁n",
      "i"
    ],
    [
      "▁ni",
      "at"
    ],
    [
      "akan",
      "an"
    ],
    [
      "g",
      "us"
    ],
    [
      "▁model",
      "ku"
    ],
    [
      "it",
      "ra"
    ],
    [
      "▁D",
      "en"
    ],
    [
      "▁Den",
      "p"
    ],
    [
      "▁Denp",
      "as"
    ],
    [
      "▁Denpas",
      "ar"
    ],
    [
      "a",
      "c"
    ],
    [
      "▁Sem",
      "arang"
    ],
    [
      "▁W",
      "h"
    ],
    [
      "▁Wh",
      "ite"
    ],
    [
      "▁White",
      "G"
    ],
    [
      "▁WhiteG",
      "at"
    ],
    [
      "▁WhiteGat",
      "e"
    ],
    [
      "▁WhiteGate",
      "M"
    ],
    [
      "▁WhiteGateM",
      "ini"
    ],
    [
      "▁rahasi",
      "amu"
    ],
    [
      "2",
      "8"
    ],
    [
      "▁ber",
      "apa"
    ],
    [
      "▁l",
      "ok"
    ],
    [
      "▁lok",
      "asi"
    ],
    [
      "▁kamer",
      "aku"
    ],
    [
      "▁kuc",
      "ingku"
    ],
    [
      "▁kuc",
      "ingmu"
    ],
    [
      "▁Ban",
      "d"
    ],
    [
      "▁Band",
      "ung"
    ],
    [
      "▁burung",
      "ku"
    ],
    [
      "▁burung",
      "mu"
    ],
    [
      "▁",
      "Y"
    ],
    [
      "▁Y",
      "og"
    ],
    [
      "▁Yog",
      "y"
    ],
    [
      "▁Yogy",
      "akarta"
    ],
    [
      "in",
      "a"
    ],
    [
      "▁P",
      "adang"
    ],
    [
      "▁b",
      "ela"
    ],
    [
      "▁1",
      "28"
    ],
    [
      "▁R",
      "us"
    ],
    [
      "▁Rus",
      "t"
    ],
    [
      "▁R",
      "a"
    ],
    [
      "▁T",
      "eg"
    ],
    [
      "▁Teg",
      "ar"
    ],
    [
      "▁S",
      "alsa"
    ],
    [
      "▁rapat",
      "ku"
    ],
    [
      "it",
      "a"
    ],
    [
      "▁s",
      "epat"
    ],
    [
      "▁sepat",
      "u"
    ],
    [
      "▁M",
      "al"
    ],
    [
      "▁Mal",
      "ang"
    ],
    [
      "▁men",
      "y"
    ],
    [
      "▁V",
      "ina"
    ],
    [
      "▁adik",
      "ku"
    ],
    [
      "▁ala",
      "t"
    ],
    [
      "▁A",
      "la"
    ],
    [
      "▁Ala",
      "t"
    ],
    [
      "▁adik",
      "mu"
    ],
    [
      "▁B",
      "ima"
    ],
    [
      "▁C",
      "itra"
    ],
    [
      "▁ku",
      "n"
    ],
    [
      "en",
      "da"
    ],
    [
      "▁kakak",
      "ku"
    ],
    [
      "▁N",
      "ad"
    ],
    [
      "▁Nad",
      "i"
    ],
    [
      "▁Nadi",
      "a"
    ],
    [
      "▁P",
      "y"
    ],
    [
      "▁Py",
      "t"
    ],
    [
      "▁Pyt",
      "h"
    ],
    [
      "▁Pyth",
      "on"
    ],
    [
      "▁l",
      "em"
    ],
    [
      "▁G",
      "o"
    ],
    [
      "▁G",
      "ita"
    ],
    [
      "▁em",
      "pat"
    ],
    [
      "ir",
      "ana"
    ],
    [
      "▁T",
      "y"
    ],
    [
      "▁Ty",
      "p"
    ],
    [
      "▁Typ",
      "e"
    ],
    [
      "▁Type",
      "Script"
    ],
    [
      "▁g",
      "un"
    ],
    [
      "▁gun",
      "ung"
    ],
    [
      "▁l",
      "ima"
    ],
    [
      "▁J",
      "ihan"
    ],
    [
      "▁Re",
      "c"
    ],
    [
      "▁Rec",
      "al"
    ],
    [
      "▁Recal",
      "l"
    ],
    [
      "▁Recall",
      "O"
    ],
    [
      "▁RecallO",
      "n"
    ],
    [
      "▁RecallOn",
      "e"
    ],
    [
      "▁suk",
      "ai"
    ],
    [
      "▁Aku",
      "n"
    ],
    [
      "▁",
      "utama"
    ],
    [
      "▁cadangan",
      "ku"
    ],
    [
      "▁6",
      "4"
    ],
    [
      "▁Sem",
      "oga"
    ],
    [
      "▁ber",
      "j"
    ],
    [
      "▁berj",
      "alan"
    ],
    [
      "▁l",
      "an"
    ],
    [
      "▁lan",
      "car"
    ],
    [
      "▁P",
      "ut"
    ],
    [
      "▁Put",
      "ri"
    ],
    [
      "▁t",
      "uj"
    ],
    [
      "▁tuj",
      "u"
    ],
    [
      "▁tuju",
      "h"
    ],
    [
      "ing",
      "in"
    ],
    [
      "▁pr",
      "ed"
    ],
    [
      "▁pred",
      "ik"
    ],
    [
      "▁predik",
      "si"
    ],
    [
      "▁kelas",
      "mu"
    ],
    [
      "▁h",
      "it"
    ],
    [
      "▁hit",
      "am"
    ],
    [
      "▁Ra",
      "fi"
    ],
    [
      "em",
      "an"
    ],
    [
      "▁ber",
      "enang"
    ],
    [
      "ot",
      "o"
    ],
    [
      "▁V",
      "eg"
    ],
    [
      "▁Veg",
      "a"
    ],
    [
      "▁1",
      "6"
    ],
    [
      "▁K",
      "iko"
    ],
    [
      "▁",
      "7"
    ],
    [
      "▁kun",
      "ci"
    ],
    [
      "▁men",
      "ya"
    ],
    [
      "▁menya",
      "la"
    ],
    [
      "▁menyala",
      "kan"
    ],
    [
      "▁motor",
      "ku"
    ],
    [
      "4",
      "3"
    ],
    [
      "▁2",
      "5"
    ],
    [
      "▁M",
      "o"
    ],
    [
      "▁Mo",
      "ci"
    ],
    [
      "▁lem",
      "ari"
    ],
    [
      "▁reservasi",
      "ku"
    ],
    [
      "▁reservasi",
      "mu"
    ],
    [
      "▁hias",
      "ku"
    ],
    [
      "▁hias",
      "mu"
    ],
    [
      "▁M",
      "akanan"
    ],
    [
      "▁p",
      "al"
    ],
    [
      "▁pal",
      "ing"
    ],
    [
      "▁la",
      "ci"
    ],
    [
      "▁catat",
      "an"
    ],
    [
      "▁V",
      "ersi"
    ],
    [
      "▁model",
      "mu"
    ],
    [
      "▁8",
      "000"
    ],
    [
      "▁proyek",
      "mu"
    ],
    [
      "▁D",
      "osen"
    ],
    [
      "▁M",
      "in"
    ],
    [
      "▁Min",
      "um"
    ],
    [
      "▁Minum",
      "an"
    ],
    [
      "▁se",
      "p"
    ],
    [
      "▁sep",
      "er"
    ],
    [
      "▁seper",
      "t"
    ],
    [
      "▁sepert",
      "i"
    ],
    [
      "▁tiket",
      "ku"
    ],
    [
      "▁tiket",
      "mu"
    ],
    [
      "▁final",
      "ku"
    ],
    [
      "▁final",
      "mu"
    ],
    [
      "▁J",
      "adwal"
    ],
    [
      "▁rapat",
      "mu"
    ],
    [
      "▁kamer",
      "a"
    ],
    [
      "▁f",
      "oto"
    ],
    [
      "▁foto",
      "ku"
    ],
    [
      "3",
      "9"
    ],
    [
      "▁gar",
      "asi"
    ],
    [
      "▁bela",
      "k"
    ],
    [
      "▁belak",
      "ang"
    ],
    [
      "▁25",
      "6"
    ],
    [
      "▁Bu",
      "bu"
    ],
    [
      "▁P",
      "iko"
    ],
    [
      "▁t",
      "as"
    ],
    [
      "▁c",
      "ok"
    ],
    [
      "▁cok",
      "ela"
    ],
    [
      "▁cokela",
      "t"
    ],
    [
      "▁B",
      "on"
    ],
    [
      "▁Bon",
      "i"
    ],
    [
      "▁k",
      "er"
    ],
    [
      "▁ker",
      "ja"
    ],
    [
      "▁K",
      "irana"
    ],
    [
      "▁s",
      "am"
    ],
    [
      "▁sam",
      "p"
    ],
    [
      "▁samp",
      "ing"
    ],
    [
      "▁la",
      "pt"
    ],
    [
      "▁lapt",
      "op"
    ],
    [
      "▁peng",
      "en"
    ],
    [
      "▁pengen",
      "alan"
    ],
    [
      "▁t",
      "op"
    ],
    [
      "▁top",
      "ik"
    ],
    [
      "7",
      "0"
    ],
    [
      "▁anj",
      "ingku"
    ],
    [
      "▁anj",
      "ingmu"
    ],
    [
      "▁Ind",
      "ra"
    ],
    [
      "▁B",
      "ore"
    ],
    [
      "▁Bore",
      "al"
    ],
    [
      "▁Boreal",
      "is"
    ],
    [
      "▁",
      "4"
    ],
    [
      "▁N",
      "usa"
    ],
    [
      "▁ke",
      "gi"
    ],
    [
      "▁kegi",
      "at"
    ],
    [
      "▁kegiat",
      "an"
    ],
    [
      "▁b",
      "a"
    ],
    [
      "▁ba",
      "gus"
    ],
    [
      "▁g",
      "ur"
    ],
    [
      "▁gur",
      "uku"
    ],
    [
      "▁S",
      "ir"
    ],
    [
      "▁Sir",
      "i"
    ],
    [
      "▁Siri",
      "us"
    ],
    [
      "▁F",
      "ajar"
    ],
    [
      "▁H",
      "ana"
    ],
    [
      "▁s",
      "ed"
    ],
    [
      "▁sed",
      "ang"
    ],
    [
      "▁m",
      "akan"
    ],
    [
      "▁s",
      "iang"
    ],
    [
      "U",
      "S"
    ],
    [
      "US",
      "A"
    ],
    [
      "▁t",
      "e"
    ],
    [
      "▁te",
      "h"
    ],
    [
      "▁k",
      "ac"
    ],
    [
      "▁kac",
      "am"
    ],
    [
      "▁kacam",
      "ata"
    ],
    [
      "▁b",
      "ant"
    ],
    [
      "▁bant",
      "u"
    ],
    [
      "▁l",
      "ihat"
    ],
    [
      "▁lihat",
      "ku"
    ],
    [
      "▁A",
      "l"
    ],
    [
      "▁Al",
      "ya"
    ],
    [
      "▁kelinci",
      "ku"
    ],
    [
      "▁kelinci",
      "mu"
    ],
    [
      "g",
      "a"
    ],
    [
      "▁M",
      "aya"
    ],
    [
      "▁9",
      "000"
    ],
    [
      "▁5",
      "000"
    ],
    [
      "▁C",
      "7"
    ],
    [
      "▁H",
      "ari"
    ],
    [
      "▁mem",
      "b"
    ],
    [
      "▁memb",
      "ac"
    ],
    [
      "▁membac",
      "a"
    ],
    [
      "5",
      "9"
    ],
    [
      "8",
      "8"
    ],
    [
      "e",
      "las"
    ],
    [
      "1",
      "7"
    ],
    [
      "▁d",
      "om"
    ],
    [
      "▁dom",
      "p"
    ],
    [
      "▁domp",
      "et"
    ],
    [
      "em",
      "pat"
    ],
    [
      "▁",
      "uang"
    ],
    [
      "▁uang",
      "ku"
    ],
    [
      "▁G",
      "aya"
    ],
    [
      "▁meny",
      "ukai"
    ],
    [
      "▁Ba",
      "gus"
    ],
    [
      "▁s",
      "em"
    ],
    [
      "▁sem",
      "oga"
    ],
    [
      "▁hari",
      "mu"
    ],
    [
      "▁meny",
      "enang"
    ],
    [
      "▁menyenang",
      "kan"
    ],
    [
      "t",
      "es"
    ],
    [
      "tes",
      "t"
    ],
    [
      "▁alam",
      "at"
    ],
    [
      "▁r",
      "um"
    ],
    [
      "▁rum",
      "ah"
    ],
    [
      "▁rumah",
      "ku"
    ],
    [
      "▁b",
      "enda"
    ],
    [
      "▁B",
      "enda"
    ],
    [
      "▁A",
      "dik"
    ],
    [
      "▁Adik",
      "ku"
    ],
    [
      "▁s",
      "el"
    ],
    [
      "▁sel",
      "es"
    ],
    [
      "▁seles",
      "ai"
    ],
    [
      "▁",
      "o"
    ],
    [
      "▁o",
      "lah"
    ],
    [
      "▁olah",
      "ra"
    ],
    [
      "▁olahra",
      "ga"
    ],
    [
      "▁C",
      "h"
    ],
    [
      "▁Ch",
      "iko"
    ],
    [
      "▁M",
      "il"
    ],
    [
      "▁Mil",
      "o"
    ],
    [
      "c",
      "on"
    ],
    [
      "con",
      "fi"
    ],
    [
      "confi",
      "g"
    ],
    [
      "▁d",
      "ra"
    ],
    [
      "▁dra",
      "f"
    ],
    [
      "▁draf",
      "t"
    ],
    [
      "▁ku",
      "r"
    ],
    [
      "▁kur",
      "si"
    ],
    [
      "▁t",
      "amu"
    ],
    [
      "▁d",
      "ingin"
    ],
    [
      "▁E",
      "ka"
    ],
    [
      "▁A",
      "t"
    ],
    [
      "▁At",
      "las"
    ],
    [
      "▁ko",
      "p"
    ],
    [
      "▁kop",
      "i"
    ],
    [
      "▁K",
      "ur"
    ],
    [
      "▁Kur",
      "o"
    ],
    [
      "▁K",
      "en"
    ],
    [
      "▁Ken",
      "c"
    ],
    [
      "▁Kenc",
      "ana"
    ],
    [
      "▁2",
      "70"
    ],
    [
      "▁270",
      "17"
    ],
    [
      "D",
      "A"
    ],
    [
      "▁utama",
      "ku"
    ],
    [
      "▁cadangan",
      "mu"
    ],
    [
      "▁h",
      "el"
    ],
    [
      "▁hel",
      "m"
    ],
    [
      "er",
      "l"
    ],
    [
      "erl",
      "en"
    ],
    [
      "erlen",
      "gka"
    ],
    [
      "erlengka",
      "pan"
    ],
    [
      "▁ke",
      "pa"
    ],
    [
      "▁kepa",
      "la"
    ],
    [
      "▁n",
      "a"
    ],
    [
      "▁na",
      "ik"
    ],
    [
      "6",
      "4"
    ],
    [
      "0",
      "8"
    ],
    [
      "▁5",
      "43"
    ],
    [
      "▁T",
      "eman"
    ],
    [
      "▁Teman",
      "ku"
    ],
    [
      "▁t",
      "eman"
    ],
    [
      "▁teman",
      "mu"
    ],
    [
      "▁h",
      "ang"
    ],
    [
      "▁hang",
      "at"
    ],
    [
      "▁3",
      "000"
    ],
    [
      "▁L",
      "ab"
    ],
    [
      "▁m",
      "akanan"
    ],
    [
      "▁O",
      "r"
    ],
    [
      "▁Or",
      "e"
    ],
    [
      "▁Ore",
      "o"
    ],
    [
      "▁p",
      "ul"
    ],
    [
      "▁pul",
      "p"
    ],
    [
      "▁pulp",
      "en"
    ],
    [
      "▁t",
      "ulis"
    ],
    [
      "▁tulis",
      "ku"
    ],
    [
      "▁",
      "ingin"
    ],
    [
      "▁bela",
      "j"
    ],
    [
      "▁belaj",
      "ar"
    ],
    [
      "▁r",
      "aj"
    ],
    [
      "▁raj",
      "in"
    ],
    [
      "▁catatan",
      "ku"
    ],
    [
      "▁m",
      "o"
    ],
    [
      "▁mo",
      "b"
    ],
    [
      "▁mob",
      "il"
    ],
    [
      "▁mobil",
      "ku"
    ],
    [
      "▁ke",
      "t"
    ],
    [
      "▁ket",
      "op"
    ],
    [
      "▁ketop",
      "r"
    ],
    [
      "▁ketopr",
      "ak"
    ],
    [
      "▁C",
      "E"
    ],
    [
      "▁CE",
      "N"
    ],
    [
      "▁CEN",
      "DA"
    ],
    [
      "▁CENDA",
      "N"
    ],
    [
      "▁CENDAN",
      "A"
    ],
    [
      "2",
      "6"
    ],
    [
      "7",
      "7"
    ],
    [
      "▁final",
      "nya"
    ],
    [
      "▁K",
      "a"
    ],
    [
      "▁Ka",
      "pan"
    ],
    [
      "0",
      "4"
    ],
    [
      "▁R",
      "USA"
    ],
    [
      "2",
      "0"
    ],
    [
      "▁J",
      "um"
    ],
    [
      "▁Jum",
      "at"
    ],
    [
      "▁meng",
      "isi"
    ],
    [
      "▁d",
      "aya"
    ],
    [
      "▁p",
      "ons"
    ],
    [
      "▁pons",
      "el"
    ],
    [
      "▁ponsel",
      "ku"
    ],
    [
      "▁543",
      "2"
    ],
    [
      "6",
      "3"
    ],
    [
      "▁token",
      "i"
    ],
    [
      "▁tokeni",
      "z"
    ],
    [
      "▁tokeniz",
      "er"
    ],
    [
      "v",
      "o"
    ],
    [
      "vo",
      "c"
    ],
    [
      "voc",
      "ab"
    ],
    [
      "▁e",
      "ka"
    ],
    [
      "▁B",
      "I"
    ],
    [
      "▁BI",
      "M"
    ],
    [
      "▁BIM",
      "A"
    ],
    [
      "4",
      "8"
    ],
    [
      "▁S",
      "en"
    ],
    [
      "▁Sen",
      "in"
    ],
    [
      "5",
      "3"
    ],
    [
      "9",
      "3"
    ],
    [
      "▁R",
      "ak"
    ],
    [
      "▁Rak",
      "a"
    ],
    [
      "6",
      "5"
    ],
    [
      "▁3",
      "1"
    ],
    [
      "▁M",
      "im"
    ],
    [
      "▁Mim",
      "i"
    ],
    [
      "▁k",
      "ot"
    ],
    [
      "▁kot",
      "ak"
    ],
    [
      "▁S",
      "ab"
    ],
    [
      "▁Sab",
      "t"
    ],
    [
      "▁Sabt",
      "u"
    ],
    [
      "▁L",
      "un"
    ],
    [
      "▁Lun",
      "a"
    ],
    [
      "1",
      "8"
    ],
    [
      "▁k",
      "irana"
    ],
    [
      "08",
      "0"
    ],
    [
      "▁N",
      "em"
    ],
    [
      "▁Nem",
      "o"
    ],
    [
      "▁pen",
      "j"
    ],
    [
      "▁penj",
      "elas"
    ],
    [
      "▁penjelas",
      "an"
    ],
    [
      "▁ber",
      "ta"
    ],
    [
      "▁berta",
      "hap"
    ],
    [
      "▁t",
      "empat"
    ],
    [
      "▁T",
      "empat"
    ],
    [
      "▁in",
      "d"
    ],
    [
      "▁ind",
      "ra"
    ],
    [
      "▁f",
      "las"
    ],
    [
      "▁flas",
      "h"
    ],
    [
      "▁flash",
      "d"
    ],
    [
      "▁flashd",
      "is"
    ],
    [
      "▁flashdis",
      "k"
    ],
    [
      "y",
      "im"
    ],
    [
      "yim",
      "pan"
    ],
    [
      "yimpan",
      "an"
    ],
    [
      "▁K",
      "akak"
    ],
    [
      "▁Kakak",
      "ku"
    ],
    [
      "▁S",
      "elas"
    ],
    [
      "▁Selas",
      "a"
    ],
    [
      "▁N",
      "USA"
    ],
    [
      "▁",
      "OR"
    ],
    [
      "▁OR",
      "I"
    ],
    [
      "▁ORI",
      "O"
    ],
    [
      "▁ORIO",
      "N"
    ],
    [
      "7",
      "3"
    ],
    [
      "▁2",
      "04"
    ],
    [
      "0",
      "5"
    ],
    [
      "▁j",
      "ingg"
    ],
    [
      "▁jingg",
      "a"
    ],
    [
      "▁B",
      "3"
    ],
    [
      "▁Ra",
      "bu"
    ],
    [
      "▁p",
      "erlengkapan"
    ],
    [
      "▁P",
      "erlengkapan"
    ],
    [
      "▁M",
      "ingg"
    ],
    [
      "▁Mingg",
      "u"
    ],
    [
      "▁6",
      "1"
    ],
    [
      "59",
      "4"
    ],
    [
      "3",
      "1"
    ],
    [
      "▁",
      "ung"
    ],
    [
      "▁ung",
      "u"
    ],
    [
      "▁9",
      "5"
    ],
    [
      "8",
      "7"
    ],
    [
      "▁9",
      "3"
    ],
    [
      "▁c",
      "ont"
    ],
    [
      "▁cont",
      "o"
    ],
    [
      "▁conto",
      "h"
    ],
    [
      "▁l",
      "ang"
    ],
    [
      "▁lang",
      "s"
    ],
    [
      "▁langs",
      "ung"
    ],
    [
      "▁mem",
      "or"
    ],
    [
      "▁memor",
      "y"
    ],
    [
      "t",
      "ra"
    ],
    [
      "tra",
      "in"
    ],
    [
      "▁a",
      "y"
    ],
    [
      "▁ay",
      "am"
    ],
    [
      "▁kun",
      "ing"
    ],
    [
      "▁di",
      "al"
    ],
    [
      "▁dial",
      "og"
    ],
    [
      "▁dialog",
      "u"
    ],
    [
      "▁dialogu",
      "e"
    ],
    [
      "d",
      "ata"
    ],
    [
      "▁Bu",
      "ku"
    ],
    [
      "▁t",
      "an"
    ],
    [
      "▁tan",
      "pa"
    ],
    [
      "▁g",
      "u"
    ],
    [
      "▁gu",
      "la"
    ],
    [
      "▁n",
      "asi"
    ],
    [
      "▁g",
      "or"
    ],
    [
      "▁gor",
      "en"
    ],
    [
      "▁goren",
      "g"
    ],
    [
      "▁A",
      "2"
    ],
    [
      "▁8",
      "080"
    ],
    [
      "2",
      "7"
    ],
    [
      "39",
      "0"
    ],
    [
      "▁p",
      "e"
    ],
    [
      "▁pe",
      "c"
    ],
    [
      "▁pec",
      "el"
    ],
    [
      "4",
      "9"
    ],
    [
      "▁lem",
      "on"
    ],
    [
      "▁5",
      "4"
    ],
    [
      "▁9",
      "0"
    ],
    [
      "88",
      "8"
    ],
    [
      "▁pa",
      "y"
    ],
    [
      "▁pay",
      "ung"
    ],
    [
      "9",
      "43"
    ],
    [
      "▁a",
      "bu"
    ],
    [
      "a",
      "bu"
    ],
    [
      "0",
      "7"
    ],
    [
      "2",
      "1"
    ],
    [
      "▁l",
      "ukman"
    ],
    [
      "▁",
      "os"
    ],
    [
      "▁os",
      "car"
    ],
    [
      "5",
      "1"
    ],
    [
      "▁9",
      "1"
    ],
    [
      "6",
      "8"
    ],
    [
      "▁A",
      "1"
    ],
    [
      "9",
      "1"
    ],
    [
      "▁c",
      "itra"
    ],
    [
      "▁3",
      "05"
    ],
    [
      "▁ra",
      "fi"
    ],
    [
      "5",
      "7"
    ],
    [
      "2",
      "9"
    ],
    [
      "5",
      "5"
    ],
    [
      "▁pen",
      "yimpanan"
    ],
    [
      "▁P",
      "en"
    ],
    [
      "▁Pen",
      "yimpanan"
    ],
    [
      "18",
      "2"
    ],
    [
      "▁D",
      "4"
    ],
    [
      "▁B",
      "OR"
    ],
    [
      "▁BOR",
      "E"
    ],
    [
      "▁BORE",
      "A"
    ],
    [
      "▁BOREA",
      "L"
    ],
    [
      "▁BOREAL",
      "I"
    ],
    [
      "▁BOREALI",
      "S"
    ],
    [
      "▁s",
      "alsa"
    ],
    [
      "▁hi",
      "ja"
    ],
    [
      "▁hija",
      "u"
    ],
    [
      "▁8",
      "5"
    ],
    [
      "▁7",
      "31"
    ],
    [
      "▁A",
      "T"
    ],
    [
      "▁AT",
      "L"
    ],
    [
      "▁ATL",
      "A"
    ],
    [
      "▁ATLA",
      "S"
    ],
    [
      "▁7",
      "6"
    ],
    [
      "▁76",
      "0"
    ],
    [
      "▁9",
      "26"
    ],
    [
      "▁95",
      "87"
    ],
    [
      "▁1",
      "0"
    ],
    [
      "▁10",
      "59"
    ],
    [
      "▁93",
      "65"
    ],
    [
      "▁31",
      "26"
    ],
    [
      "▁6",
      "2"
    ],
    [
      "▁62",
      "21"
    ],
    [
      "▁1",
      "00"
    ],
    [
      "▁m",
      "i"
    ],
    [
      "▁mi",
      "e"
    ],
    [
      "▁6",
      "39"
    ],
    [
      "▁639",
      "1"
    ],
    [
      "▁3",
      "43"
    ],
    [
      "▁93",
      "4"
    ],
    [
      "▁934",
      "6"
    ],
    [
      "▁31",
      "65"
    ],
    [
      "▁4",
      "64"
    ],
    [
      "▁464",
      "2"
    ],
    [
      "▁9",
      "04"
    ],
    [
      "▁904",
      "1"
    ],
    [
      "64",
      "9"
    ],
    [
      "9",
      "26"
    ],
    [
      "▁9",
      "8"
    ],
    [
      "▁98",
      "29"
    ],
    [
      "27",
      "9"
    ],
    [
      "▁2",
      "7"
    ],
    [
      "▁27",
      "64"
    ],
    [
      "▁5",
      "7"
    ],
    [
      "▁57",
      "6"
    ],
    [
      "▁576",
      "2"
    ],
    [
      "▁25",
      "48"
    ],
    [
      "▁5",
      "080"
    ],
    [
      "▁j",
      "us"
    ],
    [
      "▁m",
      "ang"
    ],
    [
      "▁mang",
      "ga"
    ],
    [
      "▁m",
      "aya"
    ],
    [
      "▁8",
      "05"
    ],
    [
      "▁805",
      "7"
    ],
    [
      "▁9",
      "9"
    ],
    [
      "▁99",
      "49"
    ],
    [
      "▁1",
      "59"
    ],
    [
      "▁159",
      "6"
    ],
    [
      "▁8",
      "07"
    ],
    [
      "▁9",
      "390"
    ],
    [
      "▁91",
      "53"
    ],
    [
      "▁9",
      "2"
    ],
    [
      "▁92",
      "18"
    ],
    [
      "▁8",
      "7"
    ],
    [
      "▁87",
      "1"
    ],
    [
      "▁871",
      "0"
    ],
    [
      "▁54",
      "27"
    ],
    [
      "9",
      "48"
    ],
    [
      "▁g",
      "ita"
    ],
    [
      "▁s",
      "oto"
    ],
    [
      "▁16",
      "63"
    ],
    [
      "▁7",
      "8"
    ],
    [
      "▁78",
      "64"
    ],
    [
      "▁1",
      "93"
    ],
    [
      "▁193",
      "2"
    ],
    [
      "▁6",
      "53"
    ],
    [
      "▁653",
      "5"
    ],
    [
      "▁90",
      "70"
    ],
    [
      "▁9",
      "73"
    ],
    [
      "▁973",
      "8"
    ],
    [
      "65",
      "8"
    ],
    [
      "▁K",
      "am"
    ],
    [
      "▁Kam",
      "is"
    ],
    [
      "▁se",
      "der"
    ],
    [
      "▁seder",
      "h"
    ],
    [
      "▁sederh",
      "ana"
    ],
    [
      "▁16",
      "87"
    ],
    [
      "31",
      "4"
    ],
    [
      "▁pem",
      "p"
    ],
    [
      "▁pemp",
      "ek"
    ],
    [
      "▁4",
      "49"
    ],
    [
      "5",
      "2"
    ],
    [
      "▁7",
      "7"
    ],
    [
      "▁77",
      "39"
    ],
    [
      "▁4",
      "0"
    ],
    [
      "▁40",
      "77"
    ],
    [
      "4",
      "77"
    ],
    [
      "▁16",
      "7"
    ],
    [
      "▁6",
      "888"
    ],
    [
      "▁61",
      "08"
    ],
    [
      "▁5",
      "888"
    ],
    [
      "▁3",
      "3"
    ],
    [
      "▁33",
      "6"
    ],
    [
      "▁8",
      "1"
    ],
    [
      "▁81",
      "39"
    ],
    [
      "▁90",
      "88"
    ],
    [
      "▁b",
      "ak"
    ],
    [
      "▁bak",
      "s"
    ],
    [
      "▁baks",
      "o"
    ],
    [
      "▁95",
      "4"
    ],
    [
      "▁8",
      "48"
    ],
    [
      "▁848",
      "5"
    ],
    [
      "▁3",
      "6"
    ],
    [
      "▁36",
      "6"
    ],
    [
      "▁366",
      "9"
    ],
    [
      "▁9",
      "4"
    ],
    [
      "▁94",
      "51"
    ],
    [
      "▁2",
      "1"
    ],
    [
      "▁21",
      "59"
    ],
    [
      "▁4",
      "943"
    ],
    [
      "▁7",
      "53"
    ],
    [
      "▁753",
      "1"
    ],
    [
      "20",
      "5"
    ],
    [
      "▁G",
      "A"
    ],
    [
      "▁GA",
      "R"
    ],
    [
      "▁GAR",
      "U"
    ],
    [
      "▁GARU",
      "DA"
    ],
    [
      "6",
      "73"
    ],
    [
      "▁3",
      "70"
    ],
    [
      "▁370",
      "5"
    ],
    [
      "▁85",
      "39"
    ],
    [
      "▁54",
      "4"
    ],
    [
      "▁544",
      "7"
    ],
    [
      "▁6",
      "63"
    ],
    [
      "▁1",
      "1"
    ],
    [
      "▁11",
      "91"
    ],
    [
      "▁31",
      "93"
    ],
    [
      "▁e",
      "s"
    ],
    [
      "▁543",
      "0"
    ],
    [
      "▁B",
      "5"
    ],
    [
      "▁7",
      "9"
    ],
    [
      "▁79",
      "63"
    ],
    [
      "▁",
      "43"
    ],
    [
      "▁43",
      "55"
    ],
    [
      "▁5",
      "9"
    ],
    [
      "▁7",
      "07"
    ],
    [
      "▁707",
      "6"
    ],
    [
      "9",
      "9"
    ],
    [
      "▁7",
      "4"
    ],
    [
      "▁74",
      "88"
    ],
    [
      "1",
      "63"
    ],
    [
      "4",
      "1"
    ],
    [
      "▁3",
      "9"
    ],
    [
      "▁39",
      "64"
    ],
    [
      "▁b",
      "ima"
    ],
    [
      "8",
      "39"
    ],
    [
      "1",
      "1"
    ],
    [
      "8",
      "3"
    ],
    [
      "▁61",
      "18"
    ],
    [
      "9",
      "6"
    ],
    [
      "▁v",
      "al"
    ],
    [
      "▁val",
      "i"
    ],
    [
      "▁vali",
      "da"
    ],
    [
      "▁valida",
      "si"
    ],
    [
      "ban",
      "k"
    ],
    [
      "51",
      "9"
    ],
    [
      "7",
      "20"
    ],
    [
      "2",
      "77"
    ],
    [
      "8",
      "20"
    ],
    [
      "2",
      "4"
    ],
    [
      "▁d",
      "amar"
    ],
    [
      "6",
      "77"
    ],
    [
      "▁91",
      "17"
    ],
    [
      "▁4",
      "4"
    ],
    [
      "▁44",
      "08"
    ],
    [
      "20",
      "9"
    ],
    [
      "1",
      "26"
    ],
    [
      "3",
      "5"
    ],
    [
      "▁61",
      "39"
    ],
    [
      "▁9",
      "182"
    ],
    [
      "8",
      "0"
    ],
    [
      "80",
      "1"
    ],
    [
      "2",
      "5"
    ],
    [
      "▁put",
      "ri"
    ],
    [
      "▁4",
      "8"
    ],
    [
      "▁48",
      "52"
    ],
    [
      "▁v",
      "ina"
    ],
    [
      "1",
      "55"
    ],
    [
      "93",
      "6"
    ],
    [
      "▁5",
      "594"
    ],
    [
      "4",
      "57"
    ]
  ],
  "config": {
    "vocabSize": 1481,
    "minFrequency": 2,
    "specialTokens": [
      "<PAD>",
      "<UNK>",
      "<BOS>",
      "<EOS>"
    ],
    "preTokenizer": "unicode-grapheme"
  }
}